const char model_TFLite[] = {
  0x1c, 0x00, 0x00, 0x00, 0x54, 0x46, 0x4c, 0x33, 0x14, 0x00, 0x20, 0x00,
  0x1c, 0x00, 0x18, 0x00, 0x14, 0x00, 0x10, 0x00, 0x0c, 0x00, 0x00, 0x00,
  0x08, 0x00, 0x04, 0x00, 0x14, 0x00, 0x00, 0x00, 0x1c, 0x00, 0x00, 0x00,
  0x8c, 0x00, 0x00, 0x00, 0xe4, 0x00, 0x00, 0x00, 0x40, 0x20, 0x00, 0x00,
  0x50, 0x20, 0x00, 0x00, 0x58, 0x2f, 0x00, 0x00, 0x03, 0x00, 0x00, 0x00,
  0x01, 0x00, 0x00, 0x00, 0x04, 0x00, 0x00, 0x00, 0xb6, 0xde, 0xff, 0xff,
  0x0c, 0x00, 0x00, 0x00, 0x1c, 0x00, 0x00, 0x00, 0x3c, 0x00, 0x00, 0x00,
  0x0f, 0x00, 0x00, 0x00, 0x73, 0x65, 0x72, 0x76, 0x69, 0x6e, 0x67, 0x5f,
  0x64, 0x65, 0x66, 0x61, 0x75, 0x6c, 0x74, 0x00, 0x01, 0x00, 0x00, 0x00,
  0x04, 0x00, 0x00, 0x00, 0x90, 0xff, 0xff, 0xff, 0x11, 0x00, 0x00, 0x00,
  0x04, 0x00, 0x00, 0x00, 0x08, 0x00, 0x00, 0x00, 0x64, 0x65, 0x6e, 0x73,
  0x65, 0x5f, 0x31, 0x35, 0x00, 0x00, 0x00, 0x00, 0x01, 0x00, 0x00, 0x00,
  0x04, 0x00, 0x00, 0x00, 0x9a, 0xdf, 0xff, 0xff, 0x04, 0x00, 0x00, 0x00,
  0x0f, 0x00, 0x00, 0x00, 0x63, 0x6f, 0x6e, 0x76, 0x32, 0x64, 0x5f, 0x31,
  0x34, 0x5f, 0x69, 0x6e, 0x70, 0x75, 0x74, 0x00, 0x02, 0x00, 0x00, 0x00,
  0x34, 0x00, 0x00, 0x00, 0x04, 0x00, 0x00, 0x00, 0xdc, 0xff, 0xff, 0xff,
  0x14, 0x00, 0x00, 0x00, 0x04, 0x00, 0x00, 0x00, 0x13, 0x00, 0x00, 0x00,
  0x43, 0x4f, 0x4e, 0x56, 0x45, 0x52, 0x53, 0x49, 0x4f, 0x4e, 0x5f, 0x4d,
  0x45, 0x54, 0x41, 0x44, 0x41, 0x54, 0x41, 0x00, 0x08, 0x00, 0x0c, 0x00,
  0x08, 0x00, 0x04, 0x00, 0x08, 0x00, 0x00, 0x00, 0x13, 0x00, 0x00, 0x00,
  0x04, 0x00, 0x00, 0x00, 0x13, 0x00, 0x00, 0x00, 0x6d, 0x69, 0x6e, 0x5f,
  0x72, 0x75, 0x6e, 0x74, 0x69, 0x6d, 0x65, 0x5f, 0x76, 0x65, 0x72, 0x73,
  0x69, 0x6f, 0x6e, 0x00, 0x15, 0x00, 0x00, 0x00, 0x58, 0x1f, 0x00, 0x00,
  0x50, 0x1f, 0x00, 0x00, 0x38, 0x1f, 0x00, 0x00, 0x1c, 0x1f, 0x00, 0x00,
  0xdc, 0x1e, 0x00, 0x00, 0x8c, 0x1e, 0x00, 0x00, 0x7c, 0x06, 0x00, 0x00,
  0x4c, 0x06, 0x00, 0x00, 0xbc, 0x01, 0x00, 0x00, 0x6c, 0x01, 0x00, 0x00,
  0xcc, 0x00, 0x00, 0x00, 0xc4, 0x00, 0x00, 0x00, 0xbc, 0x00, 0x00, 0x00,
  0xb4, 0x00, 0x00, 0x00, 0xac, 0x00, 0x00, 0x00, 0xa4, 0x00, 0x00, 0x00,
  0x9c, 0x00, 0x00, 0x00, 0x94, 0x00, 0x00, 0x00, 0x8c, 0x00, 0x00, 0x00,
  0x6c, 0x00, 0x00, 0x00, 0x04, 0x00, 0x00, 0x00, 0x6a, 0xe0, 0xff, 0xff,
  0x04, 0x00, 0x00, 0x00, 0x58, 0x00, 0x00, 0x00, 0x0c, 0x00, 0x00, 0x00,
  0x08, 0x00, 0x0e, 0x00, 0x08, 0x00, 0x04, 0x00, 0x08, 0x00, 0x00, 0x00,
  0x10, 0x00, 0x00, 0x00, 0x28, 0x00, 0x00, 0x00, 0x00, 0x00, 0x06, 0x00,
  0x08, 0x00, 0x04, 0x00, 0x06, 0x00, 0x00, 0x00, 0x04, 0x00, 0x00, 0x00,
  0x01, 0x00, 0x00, 0x00, 0xeb, 0x03, 0x00, 0x00, 0x00, 0x00, 0x0a, 0x00,
  0x10, 0x00, 0x0c, 0x00, 0x08, 0x00, 0x04, 0x00, 0x0a, 0x00, 0x00, 0x00,
  0x02, 0x00, 0x00, 0x00, 0x02, 0x00, 0x00, 0x00, 0x04, 0x00, 0x00, 0x00,
  0x06, 0x00, 0x00, 0x00, 0x32, 0x2e, 0x31, 0x33, 0x2e, 0x30, 0x00, 0x00,
  0xce, 0xe0, 0xff, 0xff, 0x04, 0x00, 0x00, 0x00, 0x10, 0x00, 0x00, 0x00,
  0x31, 0x2e, 0x31, 0x34, 0x2e, 0x30, 0x00, 0x00, 0x00, 0x00, 0x00, 0x00,
  0x00, 0x00, 0x00, 0x00, 0x40, 0xd3, 0xff, 0xff, 0x44, 0xd3, 0xff, 0xff,
  0x48, 0xd3, 0xff, 0xff, 0x4c, 0xd3, 0xff, 0xff, 0x50, 0xd3, 0xff, 0xff,
  0x54, 0xd3, 0xff, 0xff, 0x58, 0xd3, 0xff, 0xff, 0x5c, 0xd3, 0xff, 0xff,
  0x0a, 0xe1, 0xff, 0xff, 0x04, 0x00, 0x00, 0x00, 0x90, 0x00, 0x00, 0x00,
  0x86, 0x3a, 0x00, 0xb2, 0x58, 0x70, 0x5e, 0x7f, 0x71, 0x08, 0xf5, 0xd4,
  0xd6, 0x00, 0xbe, 0x03, 0x33, 0x81, 0xd9, 0x7f, 0xf3, 0x40, 0xce, 0x04,
  0x10, 0x88, 0xeb, 0xf6, 0x64, 0x81, 0x14, 0x9b, 0x39, 0x2f, 0x31, 0xd4,
  0x3c, 0xfb, 0x08, 0xb3, 0xbe, 0x5e, 0x6b, 0x5f, 0x7f, 0x12, 0x0d, 0x6c,
  0xa0, 0xa5, 0x7f, 0x5d, 0x3d, 0xa1, 0x6a, 0xc0, 0xc6, 0xa4, 0xb6, 0x4e,
  0x19, 0x81, 0xa8, 0x78, 0xec, 0xed, 0xf8, 0x3b, 0x12, 0xb0, 0x7f, 0x8f,
  0x01, 0x87, 0x81, 0xef, 0x53, 0xcb, 0x08, 0xba, 0xe8, 0xdd, 0x40, 0x7f,
  0xf5, 0x38, 0x7e, 0x3b, 0xb9, 0xc6, 0x24, 0x6a, 0xd3, 0x81, 0xc2, 0xf9,
  0x54, 0x1f, 0xa8, 0x15, 0x16, 0x58, 0x81, 0x2d, 0x2d, 0x06, 0x01, 0x55,
  0x81, 0x87, 0x32, 0xce, 0xc5, 0xaf, 0xae, 0xc3, 0x1a, 0x66, 0xec, 0x13,
  0x7f, 0xb0, 0x09, 0x9b, 0xe8, 0x56, 0x8d, 0x14, 0xeb, 0x5d, 0xdb, 0x7a,
  0x81, 0x6c, 0xb1, 0x53, 0xc0, 0xfe, 0x1f, 0x0a, 0x46, 0x55, 0x7f, 0xb0,
  0xa6, 0xe1, 0xff, 0xff, 0x04, 0x00, 0x00, 0x00, 0x40, 0x00, 0x00, 0x00,
  0xf8, 0xff, 0xff, 0xff, 0x00, 0x00, 0x00, 0x00, 0xfd, 0xff, 0xff, 0xff,
  0x00, 0x00, 0x00, 0x00, 0x02, 0x00, 0x00, 0x00, 0x05, 0x00, 0x00, 0x00,
  0xfc, 0xff, 0xff, 0xff, 0xfa, 0xff, 0xff, 0xff, 0x05, 0x00, 0x00, 0x00,
  0x04, 0x00, 0x00, 0x00, 0xff, 0xff, 0xff, 0xff, 0x00, 0x00, 0x00, 0x00,
  0x01, 0x00, 0x00, 0x00, 0x0a, 0x00, 0x00, 0x00, 0x02, 0x00, 0x00, 0x00,
  0xfb, 0xff, 0xff, 0xff, 0xf2, 0xe1, 0xff, 0xff, 0x04, 0x00, 0x00, 0x00,
  0x80, 0x04, 0x00, 0x00, 0xd0, 0xed, 0xe9, 0x10, 0xbf, 0xfa, 0xf8, 0x81,
  0xfd, 0xea, 0xee, 0x21, 0x24, 0xa1, 0xb7, 0x24, 0x42, 0x65, 0x86, 0x5b,
  0xe9, 0x36, 0x1c, 0x0f, 0x08, 0x4f, 0x6f, 0xc3, 0x66, 0xa3, 0xf9, 0x23,
  0x39, 0x9a, 0xa0, 0xf5, 0x5e, 0x02, 0x56, 0xb0, 0x00, 0xff, 0xc4, 0x3f,
  0x94, 0x9e, 0xc3, 0x06, 0xc7, 0x20, 0x67, 0xf7, 0x3f, 0x9b, 0x27, 0xfb,
  0xd6, 0x26, 0x0b, 0xed, 0xcc, 0xb3, 0x0f, 0x33, 0xdd, 0x44, 0x16, 0x06,
  0xa7, 0xa2, 0x68, 0x36, 0xa6, 0x26, 0x00, 0xc8, 0xd1, 0xb7, 0xe1, 0x4a,
  0x65, 0xf4, 0x2e, 0x4f, 0xde, 0xe8, 0xfc, 0x59, 0x79, 0x8d, 0xb3, 0x54,
  0xce, 0xee, 0x5c, 0xaa, 0x58, 0x41, 0xb6, 0x4d, 0xaf, 0xd3, 0xe9, 0x64,
  0xec, 0x26, 0xb7, 0x02, 0x56, 0xb3, 0xd3, 0x4f, 0x6b, 0xa5, 0x9a, 0x2f,
  0x50, 0x96, 0x50, 0x13, 0x4d, 0x13, 0xdf, 0x25, 0xed, 0xb6, 0x8f, 0x16,
  0x2d, 0xb6, 0x29, 0xb6, 0x31, 0x95, 0xec, 0xcd, 0x15, 0x12, 0x85, 0x01,
  0x00, 0x62, 0x8c, 0x2b, 0x8c, 0x8d, 0xba, 0x08, 0x0b, 0x1a, 0xa9, 0x45,
  0xd2, 0xfd, 0xb4, 0x52, 0xda, 0x15, 0x04, 0xb9, 0x41, 0xd7, 0xad, 0x94,
  0x9d, 0x73, 0xd4, 0x35, 0x87, 0x71, 0x3e, 0xbe, 0xa0, 0xe4, 0xa4, 0xf8,
  0x3a, 0x08, 0xfc, 0xf3, 0x30, 0x14, 0x0b, 0xbb, 0x8d, 0xbc, 0x35, 0xa2,
  0xdf, 0xa7, 0x63, 0x8e, 0x5a, 0x95, 0x28, 0x13, 0x41, 0x71, 0x44, 0xb3,
  0x45, 0x18, 0xa6, 0xf3, 0xa7, 0x10, 0xa6, 0xcc, 0x14, 0xfa, 0x29, 0x32,
  0x02, 0xfb, 0x47, 0x9d, 0x5a, 0x4f, 0xb3, 0xa3, 0x00, 0xe9, 0x9b, 0x4b,
  0x16, 0x57, 0xce, 0xe5, 0x13, 0xcf, 0x96, 0x86, 0x61, 0xa8, 0x92, 0xee,
  0x13, 0x3e, 0x54, 0x93, 0x7a, 0x75, 0xb4, 0xec, 0x90, 0xc0, 0x29, 0x70,
  0x6d, 0x13, 0x7f, 0xb2, 0xad, 0x5d, 0x33, 0xd3, 0x70, 0x2d, 0x2c, 0xba,
  0xba, 0x62, 0x0f, 0x24, 0x1e, 0x90, 0xe6, 0x00, 0xc4, 0xb2, 0xb2, 0x9c,
  0xcc, 0xd8, 0xa7, 0xb2, 0x68, 0xaf, 0xec, 0x56, 0x41, 0x30, 0x0b, 0xd7,
  0x27, 0x4f, 0x5b, 0xa5, 0x6d, 0xee, 0xee, 0xab, 0xf4, 0x99, 0xde, 0xef,
  0xc5, 0xf8, 0x72, 0x64, 0x1a, 0xda, 0x0a, 0x9a, 0x93, 0x6b, 0xec, 0x1e,
  0x49, 0xbd, 0x8e, 0xc7, 0xe7, 0xf9, 0x1f, 0xe0, 0xbe, 0x0f, 0xa4, 0x31,
  0x65, 0x19, 0x34, 0x40, 0x11, 0xd8, 0x83, 0x59, 0x1b, 0x42, 0xe2, 0x38,
  0x95, 0xc0, 0x93, 0x2c, 0x25, 0x12, 0x79, 0x90, 0x02, 0x5d, 0x81, 0x00,
  0x53, 0x04, 0x86, 0x50, 0x6c, 0xf1, 0xcf, 0x6e, 0xad, 0x90, 0x59, 0xfa,
  0xed, 0x02, 0x56, 0x2a, 0xe2, 0x71, 0xcb, 0xb5, 0xee, 0x73, 0x37, 0x35,
  0x5c, 0x37, 0x38, 0x9b, 0x9d, 0xd9, 0xde, 0x07, 0x17, 0xca, 0x12, 0x0d,
  0x72, 0x1e, 0xe9, 0xbb, 0xdd, 0x96, 0x13, 0x95, 0x00, 0xca, 0x46, 0xa5,
  0x24, 0xf3, 0xed, 0x6f, 0x4c, 0x0e, 0x55, 0xd4, 0x43, 0xfc, 0x2e, 0xab,
  0x9b, 0x44, 0x62, 0x0e, 0x85, 0x23, 0x18, 0xc4, 0x55, 0xaa, 0xbc, 0x35,
  0xfe, 0x3d, 0x0a, 0xf3, 0x49, 0x2d, 0xdb, 0x4c, 0xd4, 0x1e, 0x57, 0xf5,
  0xc7, 0x9f, 0xe7, 0x2b, 0x44, 0xdf, 0xb9, 0xf0, 0xe4, 0xf5, 0x85, 0x89,
  0xa4, 0x46, 0x20, 0xed, 0x93, 0xa7, 0x26, 0xac, 0xa2, 0x92, 0xb9, 0xb8,
  0xca, 0x38, 0x64, 0x00, 0x15, 0xa4, 0xa1, 0x7f, 0x59, 0xb1, 0x8e, 0xdb,
  0x09, 0x62, 0xd1, 0xce, 0xa0, 0xd5, 0xfe, 0x7b, 0xa5, 0x46, 0x9f, 0x64,
  0x38, 0xd6, 0x04, 0x39, 0x5c, 0xc0, 0x24, 0x0d, 0xef, 0x29, 0xc6, 0x53,
  0x75, 0xe4, 0x0c, 0x13, 0x01, 0xc3, 0x29, 0x05, 0x5c, 0x22, 0x44, 0xef,
  0x23, 0xfb, 0x2c, 0xc6, 0xd2, 0xf5, 0xa7, 0xb0, 0x5d, 0x87, 0x9c, 0x6c,
  0x76, 0xa1, 0x33, 0x23, 0x68, 0x09, 0xf1, 0xbe, 0x7f, 0x0b, 0xf0, 0x57,
  0xc4, 0x24, 0x00, 0x73, 0x27, 0x7b, 0x2e, 0x0b, 0x08, 0x59, 0x29, 0x59,
  0xa2, 0xff, 0x34, 0x87, 0x6e, 0x6a, 0x9b, 0xe7, 0x88, 0x31, 0xef, 0xdb,
  0xfd, 0x67, 0xf5, 0x37, 0x19, 0x51, 0x68, 0x9c, 0x68, 0xad, 0xf9, 0xa1,
  0xdc, 0xd0, 0xe4, 0x54, 0x0e, 0x59, 0x02, 0x5a, 0xbf, 0x74, 0xea, 0x05,
  0x0b, 0x14, 0x95, 0x70, 0xac, 0xa7, 0xad, 0x94, 0xc2, 0xf2, 0xaa, 0xa8,
  0x88, 0x7f, 0x18, 0x08, 0x47, 0x1b, 0x69, 0xd2, 0xeb, 0x4e, 0xf2, 0xa0,
  0xf6, 0x2b, 0x03, 0x91, 0xcc, 0x1d, 0x63, 0x93, 0x71, 0xf1, 0xe5, 0xa8,
  0xc3, 0x05, 0xe5, 0x76, 0xf5, 0x79, 0x20, 0x10, 0x73, 0x05, 0x01, 0x00,
  0xc3, 0x6f, 0x5e, 0x4d, 0x90, 0x4c, 0xaa, 0x46, 0x08, 0x9c, 0x5d, 0x3a,
  0x19, 0x54, 0x7d, 0xa2, 0xd8, 0xf9, 0x97, 0xf3, 0x86, 0xcd, 0x3e, 0x4b,
  0x8a, 0x8d, 0x60, 0xe6, 0x0c, 0x58, 0x87, 0x3c, 0x30, 0x5a, 0x2a, 0xc3,
  0xdc, 0xb7, 0x70, 0x9a, 0x8d, 0x6a, 0xec, 0xa9, 0xfe, 0x08, 0x8e, 0x17,
  0xba, 0xaa, 0x50, 0x0a, 0x5f, 0xbb, 0x61, 0x3e, 0xe0, 0x13, 0x93, 0x2e,
  0xbf, 0x83, 0x11, 0x59, 0x95, 0xe5, 0x48, 0x32, 0x08, 0xff, 0x2b, 0xa4,
  0x44, 0x06, 0x0c, 0x5d, 0xc1, 0x2d, 0x23, 0x26, 0x13, 0x04, 0x4a, 0x02,
  0xb0, 0xc0, 0x67, 0x72, 0x3e, 0xfe, 0xa8, 0x0b, 0x54, 0x66, 0x50, 0xf1,
  0x65, 0x56, 0xaf, 0xae, 0x73, 0x76, 0x92, 0xd7, 0x10, 0xbb, 0x64, 0x08,
  0xa0, 0x4f, 0x24, 0x9a, 0x14, 0x30, 0x13, 0x85, 0x49, 0xd7, 0x63, 0x32,
  0xa2, 0xba, 0x5a, 0x2f, 0xd0, 0x3f, 0xd0, 0xd3, 0x37, 0x3f, 0xd3, 0x25,
  0xff, 0xf2, 0xbd, 0x27, 0x29, 0xd1, 0x09, 0x74, 0x23, 0xb9, 0xac, 0x9a,
  0x58, 0x4e, 0xa4, 0x28, 0xe8, 0x0f, 0xd4, 0xf8, 0xe6, 0x6e, 0xc7, 0xa8,
  0xbd, 0x12, 0xee, 0xbb, 0x2f, 0xf8, 0x17, 0x05, 0x26, 0x1e, 0xb7, 0xa9,
  0xbf, 0x38, 0x75, 0xd8, 0x5d, 0x2b, 0xb1, 0x2a, 0xae, 0x93, 0xfa, 0xb7,
  0x31, 0xc3, 0x57, 0xc7, 0xc5, 0x14, 0x08, 0x93, 0x52, 0xdc, 0x7f, 0x26,
  0xe0, 0xb1, 0xe3, 0x89, 0x67, 0x9f, 0x93, 0xc3, 0x4b, 0x06, 0x94, 0x10,
  0x02, 0x4d, 0x88, 0x69, 0xa8, 0x5a, 0x8a, 0x36, 0x53, 0x51, 0xdc, 0x9f,
  0x94, 0xad, 0xdc, 0x0d, 0x75, 0xfd, 0xf9, 0x2c, 0x22, 0x07, 0x44, 0x97,
  0x8a, 0x03, 0xc5, 0x0c, 0x37, 0xdc, 0x4b, 0x68, 0x07, 0xff, 0xe7, 0x82,
  0x3f, 0x65, 0x31, 0xfe, 0x60, 0xfb, 0xbf, 0x99, 0xfa, 0xc0, 0x08, 0x49,
  0x94, 0x49, 0xf7, 0x33, 0x23, 0xe3, 0xf7, 0xe7, 0xbd, 0x64, 0x0a, 0xf8,
  0xf7, 0x7f, 0x2e, 0x4e, 0x8b, 0xa7, 0xcb, 0x00, 0x55, 0x0f, 0x4b, 0xd9,
  0xe6, 0xbf, 0x06, 0xa2, 0x05, 0xeb, 0xd4, 0xff, 0xf0, 0x8b, 0xbf, 0x13,
  0x64, 0xd6, 0x34, 0xb4, 0x0b, 0x09, 0xa9, 0x0e, 0x5d, 0x1f, 0xc8, 0x48,
  0x25, 0x9e, 0x37, 0x0b, 0xac, 0x14, 0x02, 0x8e, 0x25, 0xa4, 0x3a, 0x33,
  0xf1, 0x4d, 0x4b, 0x38, 0xa1, 0xbf, 0x37, 0x4e, 0x34, 0xd0, 0x0b, 0x99,
  0xfc, 0x95, 0x8d, 0xac, 0xc6, 0xbd, 0x08, 0x8c, 0x62, 0xa5, 0xc9, 0xb4,
  0x9b, 0xdb, 0x45, 0xb1, 0xb7, 0x2f, 0xcc, 0x37, 0x2c, 0xee, 0x9a, 0xd5,
  0xe6, 0xbb, 0x00, 0xd0, 0xe4, 0x88, 0x3e, 0x6f, 0x46, 0x49, 0xe1, 0xbf,
  0x53, 0x24, 0x57, 0x01, 0xef, 0x9d, 0xf1, 0x0d, 0x6a, 0xbc, 0xad, 0x6b,
  0xc9, 0x3e, 0xce, 0xea, 0xd5, 0x97, 0x1e, 0x6c, 0x5a, 0xe9, 0xe7, 0x86,
  0xd1, 0x3e, 0x05, 0xfe, 0xbe, 0xdc, 0x20, 0x59, 0x97, 0xe8, 0xa5, 0xae,
  0xd8, 0x2c, 0xae, 0x1e, 0xa6, 0x92, 0xef, 0xe8, 0x13, 0x22, 0xc1, 0x7c,
  0x68, 0x9f, 0xc4, 0xa9, 0x2e, 0xb0, 0x97, 0xac, 0xd0, 0xa7, 0xa1, 0x79,
  0x5a, 0xdb, 0xc8, 0xb6, 0xbd, 0x19, 0xc6, 0x16, 0x24, 0xcf, 0x2c, 0x26,
  0x74, 0x7f, 0x90, 0x52, 0xac, 0x34, 0x9c, 0xe8, 0x11, 0xa3, 0x66, 0x26,
  0x60, 0x5a, 0x0a, 0x02, 0x84, 0x4c, 0xff, 0x7e, 0xd2, 0x94, 0x98, 0x57,
  0x24, 0x4f, 0x37, 0x9e, 0xc9, 0x2f, 0xa2, 0xea, 0xd7, 0x46, 0xca, 0x41,
  0x32, 0xe7, 0xba, 0x5d, 0x1b, 0x29, 0x5e, 0x6c, 0x1d, 0x75, 0xde, 0x6b,
  0xf5, 0x0e, 0x82, 0x96, 0xdd, 0xb9, 0x4e, 0x02, 0x79, 0xda, 0x42, 0x9f,
  0x57, 0x4b, 0xce, 0x0e, 0xee, 0x4f, 0x62, 0xb9, 0x43, 0xcc, 0xf8, 0x4c,
  0xfc, 0xd4, 0x1c, 0x43, 0x9c, 0xc8, 0x91, 0x9b, 0xdd, 0x0a, 0xe0, 0x64,
  0xe9, 0x56, 0x64, 0xb0, 0x4b, 0x69, 0xc2, 0x6c, 0xeb, 0xc6, 0xbc, 0xb1,
  0xe6, 0x79, 0x3a, 0x4c, 0x7e, 0xe6, 0xff, 0xff, 0x04, 0x00, 0x00, 0x00,
  0x20, 0x00, 0x00, 0x00, 0xe8, 0xff, 0xff, 0xff, 0xee, 0xff, 0xff, 0xff,
  0xef, 0xff, 0xff, 0xff, 0x09, 0x00, 0x00, 0x00, 0x04, 0x00, 0x00, 0x00,
  0x0a, 0x00, 0x00, 0x00, 0xeb, 0xff, 0xff, 0xff, 0xf2, 0xff, 0xff, 0xff,
  0xaa, 0xe6, 0xff, 0xff, 0x04, 0x00, 0x00, 0x00, 0x00, 0x18, 0x00, 0x00,
  0xb9, 0xb9, 0x53, 0xea, 0x17, 0x49, 0xd5, 0x29, 0x78, 0x4c, 0x01, 0xf8,
  0x06, 0xae, 0xff, 0xdb, 0x65, 0x0f, 0xed, 0x04, 0x56, 0xaa, 0xd2, 0x67,
  0x61, 0xd9, 0x56, 0x46, 0xb7, 0xd0, 0xc9, 0x29, 0x6b, 0xe7, 0xc2, 0x5f,
  0xf8, 0x3d, 0xff, 0xa6, 0x60, 0xd7, 0x55, 0x90, 0xdb, 0x54, 0x3b, 0xa7,
  0x69, 0x4e, 0xe2, 0xfa, 0x17, 0x61, 0xf1, 0x98, 0xaf, 0x99, 0x21, 0x14,
  0x13, 0xfc, 0x2b, 0xcd, 0xfd, 0xb6, 0xc8, 0xca, 0xf9, 0xd3, 0x31, 0xfc,
  0x9f, 0x4b, 0x00, 0x05, 0x2f, 0x75, 0xeb, 0x25, 0xdf, 0xf9, 0xe2, 0xbf,
  0x6e, 0x1d, 0xea, 0x1c, 0x5e, 0x5f, 0x2a, 0xbb, 0x70, 0xf7, 0xfd, 0xa1,
  0xcc, 0xe8, 0xe2, 0xf1, 0xe0, 0x45, 0xd0, 0x27, 0x43, 0x30, 0x5a, 0x53,
  0x3c, 0xc4, 0xf6, 0xfe, 0xb0, 0x5e, 0x9d, 0x20, 0xb8, 0xbc, 0x66, 0xfe,
  0x1b, 0x8f, 0x13, 0x0a, 0x4b, 0x5c, 0xa2, 0xfd, 0xa4, 0x21, 0x3b, 0xd5,
  0xc5, 0xf8, 0x61, 0xae, 0x23, 0xfa, 0x1e, 0x54, 0x0d, 0x9d, 0xe7, 0xd4,
  0x51, 0x39, 0x13, 0xf8, 0xe4, 0x67, 0xd0, 0xd0, 0x57, 0xad, 0x21, 0x2e,
  0xf3, 0x60, 0xe6, 0xaf, 0xac, 0x49, 0x48, 0x40, 0xd3, 0xd4, 0xbf, 0x0b,
  0x10, 0xb0, 0x5d, 0xa3, 0x29, 0x28, 0x57, 0xd7, 0x9d, 0xad, 0xfe, 0x21,
  0x45, 0x6a, 0x24, 0xbe, 0xc1, 0xc4, 0x8c, 0xaa, 0x20, 0xf1, 0xfd, 0x4f,
  0xfe, 0x1d, 0x05, 0x59, 0x93, 0xe5, 0x32, 0xd5, 0x03, 0xfd, 0x26, 0x1b,
  0x13, 0x2d, 0x31, 0x65, 0x3f, 0x13, 0x09, 0x18, 0xd9, 0xea, 0xfe, 0x70,
  0x9d, 0x10, 0x3e, 0x6b, 0x41, 0xfa, 0xbc, 0xcf, 0x97, 0xe9, 0xf0, 0xf9,
  0xf2, 0x15, 0x27, 0x07, 0xfc, 0x60, 0x10, 0xb8, 0xcf, 0x26, 0x69, 0x73,
  0x14, 0xe4, 0x53, 0x36, 0x9a, 0x58, 0x4a, 0x38, 0x2a, 0x54, 0x60, 0xe8,
  0x3b, 0x0b, 0x5b, 0x2f, 0xe0, 0xe9, 0x09, 0xd1, 0x99, 0xd2, 0xd1, 0xbc,
  0x17, 0x9d, 0x66, 0x2a, 0x4a, 0x93, 0xd0, 0x63, 0xa4, 0x23, 0x5f, 0xb8,
  0x8a, 0x03, 0xce, 0xe7, 0x58, 0xb8, 0xf4, 0x2c, 0xeb, 0x2d, 0x8f, 0xc2,
  0x0c, 0xd0, 0x6a, 0x11, 0xdc, 0x3e, 0xba, 0x22, 0xe5, 0xb0, 0xb2, 0xb0,
  0xe7, 0x35, 0x4a, 0x8f, 0x29, 0x69, 0xab, 0x2e, 0x41, 0x40, 0xc9, 0xfe,
  0x8e, 0x2c, 0xc2, 0x39, 0x2e, 0xb3, 0x19, 0x59, 0x02, 0xd9, 0xd0, 0x22,
  0xf5, 0x47, 0xfc, 0xd5, 0x49, 0x3d, 0xab, 0x1e, 0xcc, 0x02, 0xcb, 0x58,
  0x58, 0x02, 0xf8, 0xf0, 0x00, 0x59, 0xdd, 0x2e, 0xcc, 0x94, 0x25, 0x41,
  0x2a, 0x3b, 0xa9, 0x11, 0xc3, 0x20, 0x40, 0xac, 0xce, 0x5f, 0xcf, 0xef,
  0x05, 0xdc, 0xaa, 0x4c, 0x09, 0x40, 0xf8, 0x3a, 0x9f, 0x40, 0xaf, 0xc2,
  0x5a, 0x1e, 0x29, 0xb7, 0x5e, 0x4f, 0x9c, 0x11, 0xc3, 0x31, 0xfe, 0x9b,
  0x5e, 0x3e, 0x52, 0xf7, 0xca, 0xda, 0xa0, 0xad, 0xdd, 0xb8, 0x0b, 0x1e,
  0xb8, 0xe5, 0xbd, 0xf2, 0xe0, 0x11, 0x9c, 0x55, 0x21, 0x8e, 0x0b, 0x2e,
  0xe6, 0xee, 0x99, 0xc8, 0xbb, 0x2b, 0xc9, 0x39, 0xf3, 0x70, 0x09, 0x93,
  0x41, 0xc0, 0x9c, 0xd7, 0x12, 0x04, 0x39, 0x96, 0xe6, 0xcc, 0x4c, 0x9e,
  0x4d, 0xa2, 0xe9, 0xd5, 0x96, 0xe6, 0x27, 0x03, 0x95, 0x50, 0x1b, 0x9b,
  0x1e, 0x10, 0x30, 0xab, 0x38, 0xc4, 0x47, 0x51, 0xb9, 0x5b, 0x96, 0x3b,
  0x16, 0xa1, 0x6a, 0x97, 0x9a, 0xba, 0xd9, 0x27, 0x5b, 0xe8, 0x42, 0x0d,
  0x05, 0x4c, 0xaf, 0xda, 0x45, 0xb2, 0x5a, 0x61, 0x4a, 0xcd, 0x03, 0x30,
  0xf8, 0xc0, 0x47, 0xfd, 0x09, 0x1a, 0x49, 0x0b, 0xa1, 0xe1, 0x08, 0x48,
  0x2c, 0x14, 0xc4, 0x43, 0x68, 0xf0, 0x30, 0x34, 0xf4, 0xbc, 0xb6, 0x0a,
  0xe2, 0x5b, 0x69, 0x4b, 0x9b, 0x13, 0x2a, 0x1b, 0xc3, 0x24, 0xf4, 0xa2,
  0xf6, 0x60, 0xa6, 0x62, 0x07, 0x9d, 0xab, 0x02, 0xb3, 0x3a, 0x49, 0x24,
  0xf7, 0x05, 0xc4, 0xe1, 0x91, 0xe2, 0x4c, 0xfd, 0xb0, 0x01, 0x65, 0x04,
  0xd2, 0x3e, 0x7a, 0x00, 0xc1, 0x40, 0xdf, 0x24, 0xd9, 0xfe, 0xdb, 0xdd,
  0x51, 0x07, 0x22, 0xa6, 0xb6, 0x10, 0xb0, 0x2b, 0xe6, 0xa0, 0x30, 0x8b,
  0xc0, 0xcd, 0x00, 0x07, 0xa5, 0xc2, 0xff, 0x67, 0x02, 0x69, 0x4c, 0xdf,
  0x08, 0xcb, 0x46, 0x08, 0xd4, 0x22, 0xf9, 0x0e, 0xf5, 0x90, 0x07, 0xa7,
  0x26, 0xc0, 0x0b, 0x23, 0x23, 0x4a, 0x51, 0xee, 0x08, 0x29, 0x35, 0xec,
  0xe9, 0x2d, 0xcc, 0xac, 0x9e, 0xac, 0x78, 0xcd, 0x52, 0x73, 0x08, 0x48,
  0x22, 0xce, 0xaf, 0x8e, 0xa5, 0xd1, 0xef, 0x9c, 0x0e, 0xdc, 0x15, 0xf9,
  0x58, 0xea, 0xb8, 0x46, 0x1a, 0xc0, 0xa9, 0x06, 0x23, 0xf0, 0x3b, 0x05,
  0x15, 0xb8, 0x2c, 0xae, 0x3f, 0xf6, 0x28, 0x3a, 0xd1, 0x13, 0xfd, 0xd3,
  0xa7, 0x04, 0x0c, 0x53, 0x40, 0x02, 0xec, 0xa2, 0x08, 0x69, 0x1e, 0xdc,
  0xcb, 0xe3, 0x13, 0x2a, 0xaa, 0xab, 0x38, 0x1f, 0x50, 0xc0, 0x3f, 0xe3,
  0x34, 0xb9, 0x31, 0xc0, 0x6c, 0xa6, 0x4c, 0x46, 0x0d, 0x2d, 0xac, 0xee,
  0xfe, 0xd9, 0xd5, 0xfd, 0xe9, 0x34, 0xdd, 0xaf, 0xee, 0xcc, 0x51, 0xd9,
  0x0e, 0x96, 0xf2, 0x0b, 0x94, 0xc3, 0xbb, 0xe9, 0xe7, 0xc2, 0x63, 0xf1,
  0x4e, 0x3a, 0x05, 0x42, 0xce, 0x68, 0xe3, 0x10, 0x04, 0xbc, 0xe5, 0xe9,
  0x37, 0x44, 0xcc, 0xe1, 0xf2, 0xcf, 0x31, 0x70, 0xd1, 0x54, 0xc2, 0x92,
  0xb5, 0x14, 0x4c, 0xa8, 0x9c, 0x11, 0xf3, 0x55, 0x3b, 0x71, 0x26, 0xd4,
  0x01, 0x26, 0xfe, 0x0d, 0x32, 0xce, 0x6e, 0xc9, 0xa9, 0x57, 0xd6, 0x22,
  0xd7, 0x1c, 0xae, 0x08, 0x60, 0x47, 0x10, 0x3b, 0x46, 0xd5, 0xc2, 0x53,
  0xdc, 0xd3, 0x2d, 0xa5, 0x90, 0xe0, 0xcd, 0x3d, 0x42, 0x2f, 0x48, 0x45,
  0x40, 0xcf, 0xb9, 0xd9, 0x0f, 0xa6, 0xcf, 0xf0, 0x18, 0x32, 0x29, 0x43,
  0xca, 0x0e, 0x2d, 0x45, 0x55, 0x40, 0xed, 0x16, 0xd2, 0xf4, 0x2d, 0x38,
  0x32, 0xa7, 0x47, 0x5a, 0xef, 0xfd, 0xd7, 0x5e, 0x97, 0xa5, 0xa7, 0x99,
  0xcc, 0x0c, 0xb8, 0x3d, 0x29, 0x55, 0xf4, 0x0c, 0x9c, 0xfe, 0xea, 0x1f,
  0x15, 0xc2, 0xe2, 0xdb, 0x05, 0x69, 0x2f, 0xe7, 0x4d, 0x5d, 0x0a, 0xe8,
  0x5c, 0xbf, 0xf4, 0xf5, 0x9c, 0x08, 0xc3, 0xec, 0xef, 0x68, 0xa8, 0xef,
  0x2b, 0x56, 0x95, 0x5a, 0x3e, 0xf6, 0x1f, 0x92, 0xc1, 0xd5, 0x64, 0x67,
  0x17, 0x40, 0x1e, 0x11, 0xf3, 0x25, 0x29, 0x1a, 0xe0, 0x50, 0xcc, 0x3a,
  0x33, 0x23, 0xbc, 0x34, 0xa0, 0xe5, 0x95, 0xcd, 0x99, 0x43, 0x89, 0xf2,
  0xa2, 0x8a, 0x01, 0x9f, 0x8f, 0x30, 0x00, 0x99, 0xbd, 0x93, 0xdb, 0x1a,
  0xe4, 0xe0, 0xe5, 0x3c, 0x38, 0xed, 0x3f, 0x0c, 0xce, 0xab, 0x42, 0x5c,
  0x62, 0xd2, 0x31, 0xe7, 0xa3, 0x2d, 0xe0, 0xc4, 0x59, 0x54, 0x00, 0x9d,
  0x3e, 0xd8, 0xdc, 0x5f, 0x2c, 0x94, 0x47, 0xe5, 0x96, 0xaa, 0x2f, 0x61,
  0x32, 0x9b, 0x04, 0x09, 0x96, 0xee, 0x42, 0x1e, 0xc1, 0xd7, 0xd8, 0xbd,
  0xd2, 0x0b, 0x66, 0x42, 0x54, 0x52, 0xbe, 0x2a, 0xfc, 0x00, 0xc0, 0xd7,
  0x92, 0xf4, 0xcc, 0xa7, 0xbc, 0x9d, 0xe7, 0x4c, 0x56, 0x58, 0x65, 0x21,
  0x23, 0x63, 0xa6, 0xd3, 0xf0, 0x94, 0x56, 0x13, 0x57, 0xbd, 0xaf, 0xb8,
  0xda, 0x62, 0x3a, 0x93, 0xbc, 0x57, 0x76, 0x32, 0x8b, 0x61, 0xb9, 0x99,
  0xde, 0x3e, 0x7e, 0xa6, 0xd4, 0xd9, 0xd8, 0x2c, 0x6b, 0x93, 0xb2, 0xf9,
  0x28, 0xb8, 0xb0, 0x9c, 0x68, 0x63, 0xb8, 0xf2, 0xf3, 0x11, 0x42, 0xd5,
  0x89, 0xf6, 0x4a, 0xf6, 0x9d, 0x1e, 0xb3, 0x9d, 0x42, 0x0d, 0x4f, 0xd8,
  0x1f, 0x53, 0x53, 0x4e, 0x4a, 0x33, 0xb5, 0xe8, 0xc2, 0x4f, 0x16, 0x06,
  0x52, 0xad, 0xfc, 0x2a, 0xb7, 0xd0, 0x95, 0xb3, 0xd3, 0x11, 0xa6, 0xbf,
  0xee, 0xbd, 0x4b, 0xd5, 0x18, 0x20, 0x44, 0x0c, 0x59, 0xfe, 0xbf, 0xec,
  0x48, 0xf7, 0x48, 0x20, 0x11, 0xca, 0xfd, 0x15, 0x0b, 0x03, 0xf5, 0x9d,
  0x64, 0xa4, 0x59, 0xb7, 0xe0, 0x37, 0xed, 0x8e, 0x25, 0xbd, 0x1a, 0xa3,
  0xbd, 0x27, 0xb4, 0x9d, 0x11, 0x2c, 0xb2, 0x77, 0x96, 0x4f, 0x8b, 0xb1,
  0x5a, 0xee, 0x9f, 0x4c, 0x1f, 0x0e, 0x08, 0x19, 0x0d, 0xb3, 0xcb, 0x27,
  0xf0, 0xc9, 0xa9, 0xa3, 0x13, 0x05, 0x2d, 0xf1, 0x0c, 0xf9, 0x04, 0x55,
  0xa9, 0xd4, 0xba, 0x13, 0x11, 0xa1, 0x03, 0x95, 0x6a, 0xd7, 0x53, 0xc2,
  0xfd, 0x98, 0x16, 0xdd, 0xc9, 0x55, 0x1d, 0x03, 0xc2, 0xc3, 0x64, 0xe1,
  0x36, 0x0d, 0x98, 0xe5, 0xcf, 0xfd, 0x68, 0x4f, 0xc3, 0xba, 0x56, 0xc4,
  0x3e, 0x53, 0x9f, 0x9c, 0x3d, 0xc8, 0xe5, 0xc7, 0x1f, 0x9b, 0x5d, 0x93,
  0x9d, 0x3c, 0xe8, 0x28, 0x40, 0x1d, 0xec, 0x59, 0xca, 0xec, 0xa6, 0x64,
  0xb5, 0x51, 0xa5, 0x65, 0x40, 0xf2, 0x04, 0x54, 0xa6, 0x0f, 0xbd, 0x26,
  0x92, 0xd2, 0x47, 0xee, 0x09, 0xdb, 0xee, 0x94, 0x70, 0xf6, 0x4d, 0xed,
  0x2b, 0xb7, 0xb3, 0x1b, 0x58, 0xc6, 0x5a, 0xad, 0x9f, 0x44, 0xc8, 0x8d,
  0x33, 0xa7, 0x60, 0x0d, 0x0a, 0xd8, 0xdf, 0x55, 0xb8, 0x3e, 0xc8, 0x15,
  0xd6, 0xbc, 0x28, 0x1c, 0xfb, 0x23, 0x1a, 0x47, 0xb2, 0xcb, 0x03, 0x5a,
  0x9a, 0x5e, 0x5c, 0x09, 0x7a, 0x04, 0x65, 0xfb, 0x0e, 0xaf, 0x69, 0xd5,
  0xb9, 0x9d, 0xbc, 0x91, 0xc7, 0x17, 0xd8, 0xc8, 0xc7, 0xbf, 0x4e, 0xe1,
  0x26, 0x19, 0x22, 0x19, 0x39, 0xef, 0xad, 0x31, 0xce, 0xec, 0xd9, 0xe7,
  0x1e, 0x72, 0x41, 0xfa, 0x14, 0xc5, 0xfd, 0x51, 0x62, 0x37, 0xf2, 0xef,
  0x5a, 0x23, 0x0f, 0xf8, 0x61, 0x74, 0xfd, 0x3f, 0x39, 0xeb, 0x49, 0x27,
  0xa6, 0x01, 0xbe, 0xcd, 0x56, 0x40, 0xdd, 0x3d, 0x40, 0x68, 0x22, 0x39,
  0x0f, 0x00, 0x10, 0x40, 0xd1, 0x69, 0xbf, 0xc8, 0xea, 0x3c, 0x21, 0xf7,
  0x06, 0xfd, 0x4f, 0xc1, 0xb9, 0x4f, 0x61, 0x1a, 0xce, 0x3e, 0x19, 0x35,
  0x98, 0xed, 0xc9, 0x69, 0x5c, 0xd2, 0x9c, 0x2e, 0x6a, 0xe7, 0x0f, 0x39,
  0x3f, 0x9b, 0x3d, 0xcc, 0xda, 0x14, 0x12, 0x9a, 0xca, 0x49, 0x09, 0x49,
  0xf9, 0xdf, 0xcc, 0xc9, 0x5c, 0x9f, 0xc4, 0xe8, 0xa9, 0x28, 0xd3, 0xaf,
  0x97, 0x68, 0xd7, 0xe6, 0xc7, 0x5d, 0xdc, 0xed, 0xac, 0xb1, 0xc8, 0x50,
  0x5a, 0xc1, 0x59, 0x46, 0x9b, 0x4d, 0x2a, 0xd8, 0x4f, 0x3a, 0xeb, 0xfe,
  0x40, 0x00, 0x5b, 0xd3, 0x10, 0xf7, 0xcd, 0xc4, 0xf8, 0xb3, 0x06, 0xcb,
  0x3e, 0xa5, 0xca, 0xb5, 0x55, 0x0d, 0xe2, 0xb9, 0xe9, 0x59, 0x13, 0xc9,
  0xd9, 0x51, 0xc9, 0xb9, 0x9f, 0x4e, 0x66, 0xb4, 0x98, 0x2d, 0xc0, 0x3c,
  0x5a, 0x45, 0xde, 0x14, 0x16, 0xc1, 0xee, 0x1a, 0xc7, 0x51, 0xeb, 0x5b,
  0x5a, 0xb8, 0xde, 0xa6, 0x93, 0xe1, 0x4d, 0x0e, 0x20, 0x9d, 0x4c, 0x90,
  0xd4, 0xcf, 0x2f, 0x6a, 0x41, 0xe5, 0x1a, 0xf0, 0xf3, 0x26, 0xfe, 0xf5,
  0x42, 0xe7, 0x54, 0xca, 0x2c, 0xbd, 0x32, 0x67, 0x0d, 0x39, 0x9f, 0xf2,
  0xbc, 0x2e, 0xcd, 0x4d, 0xea, 0x5e, 0x11, 0xe9, 0xd2, 0xfc, 0x30, 0x37,
  0xae, 0x67, 0x53, 0x96, 0x5b, 0x45, 0x33, 0x03, 0xd4, 0xfe, 0xb5, 0xc0,
  0x95, 0x67, 0xc6, 0x0e, 0x28, 0x24, 0xdc, 0x25, 0x6c, 0x54, 0x36, 0xf0,
  0x66, 0x42, 0x9b, 0xc0, 0x97, 0xee, 0xa0, 0x07, 0xe2, 0x82, 0x70, 0xef,
  0xa0, 0xc6, 0xe3, 0xc6, 0x4c, 0xa9, 0x9d, 0xcf, 0xb7, 0x89, 0x62, 0x58,
  0x8f, 0xb3, 0x44, 0x36, 0xbb, 0xf7, 0xe2, 0xe9, 0x26, 0x88, 0x9e, 0x05,
  0x57, 0xd9, 0x02, 0xeb, 0x2f, 0x30, 0x3b, 0x04, 0xf6, 0xcc, 0xd3, 0x5f,
  0xb0, 0x47, 0x38, 0xbf, 0x2a, 0x2c, 0xbb, 0x04, 0x3d, 0x99, 0x44, 0x46,
  0x8d, 0x5f, 0x63, 0x6c, 0xb3, 0xec, 0x25, 0x62, 0x62, 0x48, 0x45, 0xce,
  0x44, 0xf9, 0xe1, 0x59, 0xa6, 0xf1, 0x3b, 0x0a, 0xc9, 0x96, 0x52, 0xcf,
  0x4c, 0x58, 0x4a, 0xda, 0x09, 0xd9, 0xe5, 0x63, 0x60, 0x01, 0x64, 0x94,
  0xa6, 0xea, 0xc3, 0x17, 0xdb, 0x13, 0xe2, 0x2d, 0x9f, 0xef, 0x4a, 0xfb,
  0x4e, 0xbb, 0x06, 0x4d, 0x94, 0x5f, 0xcc, 0x46, 0x92, 0x25, 0x4b, 0x38,
  0x16, 0x9b, 0x0d, 0x3c, 0xc5, 0x59, 0xbf, 0xfd, 0x25, 0x3d, 0x61, 0x17,
  0xb8, 0x58, 0x27, 0x27, 0xda, 0xbf, 0x59, 0xa7, 0x8d, 0xdf, 0x35, 0x51,
  0x57, 0x05, 0x17, 0x4b, 0x5a, 0x58, 0x23, 0x09, 0x52, 0xee, 0x65, 0xbd,
  0x52, 0xf1, 0x10, 0xc9, 0xed, 0xe2, 0x54, 0x11, 0xc1, 0x16, 0x35, 0x17,
  0x22, 0x92, 0xf0, 0xc2, 0xdb, 0xce, 0xad, 0xbc, 0x51, 0xbe, 0x40, 0xa1,
  0xe0, 0xdb, 0xc7, 0xc7, 0x62, 0xab, 0xb8, 0xd8, 0x4b, 0x3d, 0xd5, 0xe8,
  0x66, 0x3a, 0xb6, 0x2d, 0xcd, 0xba, 0xfb, 0xf2, 0xf5, 0xcb, 0xf4, 0x1d,
  0x04, 0xec, 0x8d, 0x21, 0xaa, 0x3b, 0xd1, 0x9d, 0xf4, 0xc5, 0x44, 0xca,
  0x5b, 0xe0, 0xa8, 0xd6, 0x85, 0xa2, 0xdf, 0x24, 0xc5, 0xde, 0xce, 0xbb,
  0x17, 0xd8, 0x3c, 0x99, 0x31, 0xb7, 0xf5, 0x1a, 0x23, 0x51, 0xbe, 0x13,
  0x6e, 0x3a, 0xf7, 0x9e, 0x21, 0x9b, 0xc1, 0x32, 0x72, 0xf6, 0xf9, 0xd6,
  0xe5, 0x0a, 0x13, 0xbb, 0x47, 0x9b, 0xbc, 0x2b, 0x1c, 0x5b, 0xc9, 0xd7,
  0xf2, 0x63, 0x71, 0xea, 0xfa, 0xd2, 0xda, 0xd2, 0x3a, 0xf2, 0x42, 0xcd,
  0x0f, 0xbd, 0x06, 0x4e, 0x0f, 0x1d, 0xa2, 0x34, 0x0b, 0x5c, 0x04, 0xe3,
  0xcd, 0x35, 0x9c, 0xfd, 0xed, 0x58, 0xf0, 0xd0, 0x11, 0xf1, 0xdb, 0x65,
  0xed, 0xea, 0x5e, 0x51, 0x41, 0xf6, 0x3e, 0x03, 0x32, 0xd9, 0xc2, 0x03,
  0xc7, 0xd9, 0xf6, 0xbd, 0xca, 0x46, 0x33, 0x20, 0x0a, 0xea, 0xaa, 0x54,
  0xa7, 0x34, 0xeb, 0xbb, 0x59, 0x04, 0x9d, 0x0e, 0x33, 0x52, 0xae, 0x67,
  0x34, 0xee, 0x0b, 0x16, 0x1a, 0x20, 0x5b, 0x63, 0x29, 0x38, 0x19, 0x15,
  0x36, 0xe8, 0x73, 0xa1, 0xaf, 0x29, 0xf9, 0xdf, 0xd0, 0xdc, 0x48, 0xf3,
  0xe5, 0x0c, 0xc7, 0xca, 0x5c, 0x59, 0xfa, 0xac, 0x5a, 0x99, 0x4f, 0xde,
  0x6e, 0x40, 0xcb, 0x1c, 0xf8, 0x59, 0x63, 0x47, 0x2d, 0x63, 0xd5, 0x20,
  0xc3, 0x13, 0x91, 0x52, 0xec, 0x11, 0x32, 0xd0, 0xd3, 0x00, 0xeb, 0x59,
  0x24, 0x6c, 0x65, 0x7b, 0x2f, 0xb1, 0x23, 0xf5, 0xda, 0xcc, 0x30, 0xd4,
  0xc2, 0x01, 0x26, 0x32, 0x4d, 0x9f, 0xb4, 0xc0, 0x40, 0xe1, 0xd3, 0xea,
  0xb2, 0x5f, 0x74, 0x4d, 0x00, 0x21, 0x11, 0x36, 0x68, 0xd6, 0xad, 0x1d,
  0x4a, 0x17, 0xe8, 0xeb, 0x0a, 0x13, 0x02, 0x9e, 0x1e, 0xf6, 0x4a, 0x5b,
  0x56, 0xca, 0xd7, 0xab, 0x72, 0x75, 0xc5, 0xb1, 0x10, 0xd8, 0x43, 0x5d,
  0x71, 0x71, 0xe4, 0xbc, 0xf8, 0x2b, 0x71, 0x2f, 0x37, 0xe5, 0xfd, 0x0b,
  0x3b, 0x1b, 0x23, 0x5e, 0xc5, 0xb6, 0x06, 0xac, 0xb2, 0xf7, 0x4f, 0xdf,
  0x97, 0xf2, 0xce, 0xed, 0x71, 0x24, 0x8b, 0xf2, 0x3d, 0x23, 0x41, 0xcf,
  0xab, 0x07, 0x24, 0x39, 0x4a, 0xe3, 0x48, 0x56, 0xf2, 0xaa, 0xfe, 0xc0,
  0x57, 0x8b, 0xe4, 0x3e, 0x60, 0x2c, 0xc7, 0x5b, 0x20, 0xc9, 0x04, 0x10,
  0x31, 0x39, 0xea, 0x45, 0x04, 0x0c, 0xd4, 0xdf, 0xc7, 0xcc, 0x61, 0x02,
  0xb4, 0x39, 0x09, 0xdc, 0x58, 0xc6, 0xf0, 0xd7, 0xce, 0x33, 0x61, 0x59,
  0xe9, 0x59, 0xc1, 0xea, 0xb3, 0xe9, 0xe3, 0xc2, 0x53, 0x9a, 0x42, 0xab,
  0xa8, 0x2e, 0x6e, 0x26, 0xf3, 0x47, 0x66, 0x09, 0xe8, 0x1f, 0xc8, 0x06,
  0xdd, 0xe8, 0xd1, 0xf2, 0xd4, 0xe9, 0x63, 0x43, 0x11, 0x97, 0x39, 0x76,
  0xd1, 0x51, 0x5f, 0xd7, 0xdf, 0x3d, 0xdb, 0xdf, 0x5b, 0xb4, 0x09, 0x36,
  0xa2, 0x16, 0xf8, 0x4b, 0xe2, 0xe2, 0x99, 0xbe, 0x54, 0x0d, 0xb8, 0x67,
  0xfa, 0x6f, 0x73, 0x71, 0xee, 0x35, 0xbe, 0xd5, 0x3b, 0x22, 0xa9, 0xdd,
  0x0e, 0x30, 0xca, 0x34, 0x64, 0x19, 0x1c, 0xee, 0xcb, 0x36, 0xdb, 0xc7,
  0x1f, 0x0f, 0xf2, 0x3c, 0xd6, 0x53, 0x2d, 0x9f, 0x03, 0xf5, 0xd6, 0x26,
  0xc5, 0xf0, 0x0e, 0x3f, 0x64, 0xf2, 0x11, 0x3a, 0x54, 0x56, 0x48, 0xbf,
  0xc1, 0x9a, 0xb6, 0x03, 0xdd, 0xc9, 0x32, 0xc7, 0x29, 0x38, 0xe6, 0x58,
  0x36, 0xc9, 0x3d, 0x09, 0xe0, 0xea, 0x02, 0xdf, 0x79, 0x50, 0xe4, 0x23,
  0x3f, 0x58, 0x62, 0xdf, 0x69, 0x73, 0x76, 0xf1, 0xd6, 0xf5, 0x0c, 0x03,
  0xb1, 0xbc, 0xbf, 0x40, 0x12, 0xee, 0xd7, 0x6c, 0xc5, 0xfc, 0xbf, 0xe3,
  0x17, 0xb9, 0x07, 0xa8, 0x31, 0x22, 0xb6, 0x69, 0xff, 0x60, 0x01, 0x3e,
  0x1e, 0x50, 0xcc, 0x0e, 0x32, 0xa9, 0xb0, 0xac, 0xb9, 0x86, 0xfe, 0x14,
  0x52, 0xd0, 0x51, 0x17, 0xda, 0xf9, 0x7a, 0x72, 0x2e, 0x2d, 0x70, 0xfc,
  0x78, 0x10, 0x55, 0x4d, 0x30, 0x66, 0xa7, 0xb9, 0xba, 0xbd, 0x78, 0x5d,
  0xc9, 0x1a, 0x74, 0x3d, 0xe4, 0xf0, 0xca, 0x3f, 0xf6, 0xaa, 0xda, 0xe0,
  0xbc, 0x12, 0xcf, 0x35, 0x42, 0x9e, 0xe6, 0x9e, 0xf3, 0xa4, 0xa9, 0xda,
  0xc7, 0xfa, 0x0f, 0xea, 0x57, 0x3b, 0xb4, 0xe1, 0xee, 0x49, 0x77, 0x4f,
  0xa7, 0x9c, 0xf7, 0x16, 0x36, 0x3a, 0x54, 0xf7, 0xfb, 0x44, 0x22, 0x27,
  0x9f, 0x5b, 0x66, 0xf0, 0xe1, 0xcf, 0x36, 0x51, 0x9c, 0xd5, 0xf8, 0x4c,
  0x1c, 0xc9, 0x50, 0x9a, 0xdd, 0xf2, 0xdb, 0x65, 0x0a, 0x34, 0x8f, 0x92,
  0xfb, 0x9d, 0x5c, 0x2b, 0x30, 0xe6, 0x2f, 0xcd, 0x61, 0x3b, 0x58, 0x4b,
  0xfc, 0x43, 0x9e, 0x1a, 0xc8, 0xc4, 0xeb, 0xc8, 0x9c, 0x19, 0xd1, 0xce,
  0x25, 0x94, 0xa2, 0x50, 0x49, 0x69, 0xf7, 0x1e, 0x97, 0x1d, 0x0f, 0xc4,
  0xe4, 0xda, 0x2c, 0xa5, 0x38, 0x27, 0x9e, 0x32, 0x2b, 0x3c, 0xcc, 0x45,
  0xfb, 0xec, 0x23, 0xe3, 0xb4, 0x98, 0x2a, 0x17, 0x8f, 0x4f, 0x07, 0x9d,
  0x99, 0xd3, 0xfa, 0xe0, 0xf8, 0x39, 0xc5, 0x31, 0x52, 0xc7, 0xef, 0x00,
  0xf7, 0xd7, 0x94, 0xab, 0x43, 0xdb, 0x21, 0x40, 0xcb, 0x17, 0x58, 0x3b,
  0x61, 0xe2, 0x0e, 0x12, 0x64, 0x44, 0xe9, 0xb3, 0x08, 0x67, 0xd8, 0x20,
  0x2f, 0xb8, 0xca, 0x34, 0xec, 0x5d, 0x61, 0xeb, 0x55, 0x1f, 0xa1, 0x0c,
  0x8d, 0x54, 0x63, 0xd6, 0x2d, 0x50, 0xaa, 0x0e, 0x9a, 0x70, 0xf3, 0xc0,
  0xcf, 0xee, 0x9b, 0x5c, 0x54, 0x1a, 0x47, 0xfc, 0xaa, 0xeb, 0x5a, 0x2a,
  0xe7, 0xfd, 0x3d, 0x0f, 0x14, 0xb1, 0x01, 0xd6, 0xdf, 0xaa, 0x18, 0xe9,
  0xda, 0xdf, 0xf9, 0xc1, 0xcc, 0x2e, 0xc4, 0xcf, 0x9d, 0x04, 0x10, 0xed,
  0x9f, 0x4e, 0xac, 0xfe, 0x13, 0x4a, 0xc2, 0x2d, 0x5a, 0x1e, 0x26, 0x5d,
  0x93, 0x21, 0xa1, 0x10, 0xc2, 0x40, 0x91, 0x3e, 0x4b, 0x07, 0xde, 0xff,
  0x1c, 0x4b, 0xa2, 0x0f, 0x63, 0xb2, 0xb3, 0xbc, 0xca, 0x5b, 0x27, 0xb9,
  0x42, 0xcf, 0x98, 0x31, 0x2b, 0x6d, 0xe4, 0x34, 0x6b, 0xd1, 0x01, 0x1f,
  0xf3, 0xa5, 0x3e, 0xd1, 0x2b, 0x1a, 0x59, 0x94, 0xa3, 0xbc, 0xdc, 0x58,
  0x9e, 0x6d, 0x41, 0x94, 0x4c, 0x97, 0x02, 0x2b, 0x23, 0xe4, 0xe8, 0x10,
  0x09, 0xb1, 0xef, 0xe0, 0x91, 0x09, 0xca, 0x9c, 0xa3, 0x43, 0x9c, 0xd9,
  0x42, 0x59, 0x5d, 0xaa, 0x96, 0xf2, 0x4e, 0x02, 0x54, 0x49, 0xf7, 0x9e,
  0xc7, 0x98, 0xae, 0x3f, 0x52, 0x68, 0x3e, 0xa5, 0x17, 0xa5, 0x60, 0xde,
  0x00, 0x19, 0x30, 0xd2, 0x2f, 0x5c, 0x05, 0x1e, 0xda, 0xbb, 0x2d, 0x00,
  0xaa, 0x51, 0xee, 0xfd, 0x8e, 0xa7, 0xa9, 0x33, 0xb8, 0xec, 0x30, 0xae,
  0x42, 0x99, 0x1a, 0x9e, 0x10, 0x42, 0xdf, 0x91, 0xce, 0x70, 0x33, 0xa5,
  0x90, 0xa0, 0xd6, 0x00, 0xf2, 0x15, 0x2b, 0x0c, 0x55, 0xf6, 0x55, 0xb3,
  0xae, 0x09, 0xee, 0x37, 0x14, 0x9c, 0xe8, 0x3e, 0x08, 0x38, 0xfa, 0xa5,
  0x90, 0xfe, 0x29, 0x93, 0xfd, 0xeb, 0x6a, 0x0c, 0x43, 0xfb, 0x27, 0x8c,
  0x3c, 0x4e, 0x2c, 0xc6, 0x40, 0xb5, 0xb5, 0xc2, 0xe6, 0x32, 0x98, 0xbc,
  0xbb, 0xa7, 0x9f, 0x25, 0x3b, 0x26, 0x67, 0xec, 0xc2, 0x19, 0x2f, 0xd1,
  0x55, 0x26, 0xb0, 0x4e, 0xc7, 0x13, 0xd1, 0x38, 0x17, 0x0e, 0x25, 0xb7,
  0x6f, 0x1c, 0xae, 0x55, 0x0a, 0x09, 0x41, 0xa3, 0x42, 0xc7, 0xfb, 0xa0,
  0x03, 0xf0, 0xc9, 0x07, 0xcf, 0x0f, 0x01, 0xd1, 0xf8, 0x41, 0x08, 0x3d,
  0x03, 0xa3, 0x01, 0xde, 0xf4, 0xa3, 0x51, 0x12, 0xec, 0xea, 0xa7, 0x4e,
  0xc8, 0x5a, 0x0e, 0x27, 0x97, 0x4a, 0xc4, 0xb3, 0xf2, 0xe3, 0xed, 0xca,
  0x56, 0xf8, 0x0d, 0xeb, 0x13, 0x25, 0xea, 0x5d, 0xce, 0x6f, 0x4c, 0xb6,
  0x07, 0x5f, 0xef, 0xbb, 0x1f, 0x06, 0x0f, 0xe9, 0xe8, 0x2a, 0xc7, 0x50,
  0x55, 0xd8, 0xd4, 0xc0, 0x4a, 0x24, 0x74, 0x4f, 0x64, 0x92, 0x1b, 0x58,
  0x16, 0x6d, 0x20, 0xbd, 0x1b, 0xc7, 0x3b, 0xe5, 0x43, 0x97, 0x44, 0xfd,
  0x52, 0x30, 0x3b, 0xbd, 0x1f, 0xda, 0xae, 0xe2, 0x73, 0xdf, 0x28, 0x0c,
  0x63, 0xae, 0xc5, 0xac, 0xb1, 0xc0, 0xf5, 0xa0, 0x18, 0x5d, 0x2e, 0x99,
  0x6e, 0x4b, 0x0a, 0xa1, 0x15, 0x44, 0x5a, 0x69, 0x63, 0x3b, 0x07, 0xfa,
  0xb9, 0xc2, 0xd5, 0x0e, 0xb0, 0x1b, 0xee, 0x36, 0xf7, 0x3d, 0xd6, 0xba,
  0xaa, 0xfe, 0x62, 0xb0, 0xad, 0x73, 0x4a, 0x10, 0x00, 0xc9, 0x34, 0xfb,
  0x0c, 0xdd, 0x71, 0xae, 0xaf, 0xbe, 0x68, 0x62, 0xc4, 0x5a, 0x75, 0x4c,
  0xd8, 0x6d, 0x16, 0x0d, 0xe7, 0xc3, 0x61, 0xf6, 0xa0, 0x20, 0x41, 0x71,
  0xcd, 0x2c, 0x56, 0xfb, 0x6f, 0xbd, 0x02, 0x31, 0x3b, 0x17, 0xa4, 0xb4,
  0x4a, 0x08, 0xc2, 0x0c, 0x58, 0x3b, 0x56, 0x47, 0x37, 0x58, 0xd4, 0x25,
  0x97, 0x0c, 0xf2, 0x5b, 0x0d, 0x95, 0x2e, 0xd8, 0x26, 0x40, 0xd4, 0xc4,
  0x3f, 0x32, 0x71, 0x46, 0x1e, 0x59, 0xdb, 0x06, 0xec, 0xde, 0xe1, 0xbe,
  0x1a, 0x46, 0xca, 0xc9, 0xce, 0xab, 0xad, 0x97, 0x1c, 0x2f, 0x33, 0x43,
  0xda, 0x53, 0x5a, 0xe1, 0x6d, 0x09, 0xda, 0x21, 0x1b, 0xfe, 0x07, 0x29,
  0xea, 0xfc, 0xfa, 0xb1, 0xb8, 0x3a, 0x5c, 0x27, 0xed, 0xec, 0x9d, 0xae,
  0x1b, 0x02, 0xa3, 0x99, 0x6e, 0xa2, 0xa1, 0xfb, 0x09, 0xd7, 0x15, 0xb4,
  0xf4, 0x14, 0xb1, 0x33, 0x06, 0x5c, 0xdc, 0xbb, 0x32, 0xc9, 0x0f, 0xfb,
  0x9c, 0xe3, 0x44, 0x47, 0x73, 0x0c, 0x45, 0xef, 0x07, 0x44, 0x10, 0x5a,
  0x4e, 0x60, 0x5e, 0x4c, 0x93, 0xea, 0x87, 0xa2, 0x26, 0x9a, 0x4d, 0x44,
  0xe6, 0xf0, 0x8e, 0x88, 0x18, 0xa2, 0xc0, 0x33, 0xe4, 0x10, 0x85, 0x21,
  0x41, 0xe2, 0x13, 0xf7, 0x1f, 0x13, 0x5e, 0xd0, 0xe0, 0x9a, 0x06, 0xbf,
  0x1b, 0x3e, 0x91, 0x18, 0x0c, 0xfc, 0xa3, 0xe4, 0xec, 0xf0, 0x96, 0xc4,
  0xed, 0x4f, 0xf8, 0xc2, 0x40, 0xd0, 0x07, 0x95, 0x00, 0x37, 0x1f, 0xf7,
  0xa8, 0x5e, 0x04, 0x01, 0xaa, 0x5e, 0x0c, 0xc4, 0x37, 0x11, 0xc9, 0x39,
  0xeb, 0x2e, 0x2d, 0xe1, 0x9c, 0xb8, 0x6f, 0x56, 0x37, 0x08, 0xd7, 0xaf,
  0xd0, 0x1d, 0xbb, 0x54, 0x6c, 0x6e, 0x6b, 0xfb, 0x70, 0xf0, 0xfc, 0xb6,
  0x62, 0x01, 0x3e, 0x47, 0xfc, 0xd6, 0xcc, 0x27, 0x37, 0xf7, 0x57, 0x98,
  0x71, 0x9a, 0x48, 0x10, 0xf5, 0x22, 0x15, 0x24, 0x24, 0xf1, 0xad, 0x4e,
  0x33, 0xd3, 0x0f, 0x16, 0x47, 0xcc, 0xc8, 0xb8, 0xda, 0x27, 0x37, 0x20,
  0xb5, 0x5c, 0xd3, 0x11, 0xe6, 0x18, 0x6b, 0xf0, 0x19, 0xa4, 0x02, 0xc9,
  0xae, 0x4b, 0x5d, 0x4f, 0x25, 0xaf, 0xd8, 0x11, 0xb9, 0x77, 0x70, 0x17,
  0xf8, 0xf3, 0x76, 0x26, 0x12, 0x9e, 0xf0, 0xed, 0xa6, 0x3f, 0x47, 0xad,
  0x26, 0x54, 0xd8, 0x59, 0xd3, 0xd6, 0xde, 0xa8, 0xd5, 0x98, 0xa4, 0x9c,
  0xbc, 0xfd, 0x53, 0xc8, 0x9a, 0xe4, 0xe4, 0x99, 0xe4, 0xca, 0x99, 0xd6,
  0xfd, 0xb8, 0xde, 0xda, 0x61, 0xaf, 0x5a, 0xb7, 0x29, 0xa3, 0xef, 0x2b,
  0x3d, 0xd3, 0x70, 0x23, 0xa4, 0x69, 0x48, 0x3b, 0x9d, 0x45, 0x56, 0xcd,
  0x6c, 0xaf, 0x21, 0x5e, 0xf1, 0x0a, 0xf6, 0xbd, 0x03, 0x2e, 0xf7, 0x97,
  0xdd, 0xf1, 0x15, 0x12, 0x32, 0x3f, 0xa6, 0x24, 0x74, 0x48, 0xac, 0x47,
  0xfc, 0x6e, 0xdc, 0xc6, 0x3e, 0xe0, 0xfd, 0x33, 0xc1, 0x4d, 0xc3, 0x36,
  0x2f, 0x46, 0x01, 0x0c, 0x9e, 0xee, 0xd2, 0x2e, 0x3d, 0x9d, 0xb1, 0xdc,
  0xb6, 0x2d, 0xbd, 0xc1, 0x47, 0x49, 0xc0, 0x6b, 0x20, 0x63, 0x60, 0x70,
  0x38, 0x0b, 0xe0, 0x40, 0xee, 0x31, 0x92, 0x00, 0x9d, 0x1c, 0xa1, 0xcd,
  0xf1, 0x6d, 0xe5, 0x00, 0xf1, 0x99, 0x0d, 0xc0, 0xee, 0xb8, 0x1f, 0x63,
  0xa4, 0xca, 0xc0, 0x13, 0x9a, 0xad, 0xd6, 0x33, 0x99, 0xe6, 0x97, 0xba,
  0x5e, 0xb8, 0x08, 0x33, 0xb8, 0xd6, 0xd0, 0xac, 0xc2, 0xe1, 0x19, 0xed,
  0x29, 0xdc, 0xbb, 0x5d, 0x08, 0x14, 0x23, 0xbd, 0xe6, 0xa3, 0xff, 0xa0,
  0x37, 0x08, 0x18, 0x40, 0x54, 0x2d, 0xb4, 0x4e, 0x9a, 0x27, 0x43, 0x5b,
  0x03, 0x63, 0x6c, 0xcd, 0x3a, 0x4d, 0xe9, 0xf9, 0x31, 0xa7, 0xf0, 0x53,
  0x36, 0x9a, 0x2a, 0x47, 0xf5, 0x2a, 0x22, 0x52, 0x62, 0x32, 0x33, 0xcc,
  0xdc, 0x22, 0xf6, 0x19, 0x4e, 0xf4, 0x8f, 0x3e, 0x67, 0x71, 0x23, 0xd8,
  0x62, 0x71, 0x65, 0x98, 0xe2, 0x2b, 0x39, 0xff, 0x78, 0x22, 0x55, 0xea,
  0x9a, 0x4a, 0x03, 0xcb, 0x4b, 0x02, 0x16, 0xa5, 0xcd, 0xaf, 0x92, 0x12,
  0x71, 0x40, 0x6c, 0x27, 0xbc, 0xd9, 0x8c, 0xcd, 0x55, 0x22, 0x14, 0x9e,
  0x1d, 0x2e, 0xe4, 0xe4, 0xbd, 0xab, 0x05, 0x2d, 0x49, 0xd9, 0x3d, 0xa3,
  0x0c, 0x04, 0xe9, 0xb5, 0x42, 0xce, 0x9e, 0xc0, 0xef, 0x07, 0xee, 0xe9,
  0xc6, 0xe2, 0x20, 0x62, 0xc7, 0xd9, 0x4f, 0x62, 0xc0, 0xbf, 0xc4, 0xdd,
  0xab, 0x24, 0x76, 0x41, 0xee, 0x3f, 0xaa, 0x73, 0xca, 0xfa, 0xf2, 0xf3,
  0xe8, 0x79, 0x59, 0x0b, 0xed, 0xa0, 0xf4, 0x57, 0x48, 0x39, 0xe0, 0x73,
  0xf3, 0x3f, 0xf7, 0xe6, 0xcb, 0x4c, 0x65, 0x2a, 0xaf, 0x0f, 0x67, 0xf6,
  0x36, 0x07, 0x61, 0xf5, 0xb0, 0xbc, 0xa6, 0xa2, 0x20, 0x54, 0x5f, 0xe3,
  0xa3, 0x5c, 0xf0, 0xc5, 0x08, 0x33, 0x11, 0x11, 0x71, 0xc7, 0x16, 0xd6,
  0x29, 0x10, 0xb9, 0x42, 0xc8, 0x5f, 0x00, 0x03, 0xd2, 0xf5, 0x67, 0xaf,
  0xff, 0x73, 0x49, 0xee, 0x13, 0x52, 0xa2, 0xb2, 0x48, 0x6e, 0x56, 0x69,
  0x29, 0xf6, 0x39, 0x14, 0xa3, 0xa7, 0x76, 0x36, 0x0f, 0x4d, 0x02, 0x43,
  0xfe, 0x61, 0xb0, 0xbf, 0xad, 0x50, 0x2a, 0x44, 0xba, 0x35, 0xe2, 0x99,
  0x3b, 0x44, 0xe3, 0x8c, 0x1d, 0xc6, 0xf7, 0xfc, 0x46, 0xc0, 0xd7, 0x15,
  0x2b, 0x02, 0x21, 0x5c, 0xbd, 0xa7, 0xdf, 0x53, 0xe1, 0x06, 0xeb, 0xb4,
  0xb4, 0x21, 0x3e, 0xa5, 0xf0, 0x1c, 0xfa, 0x66, 0x24, 0xd0, 0x9e, 0xa5,
  0xb9, 0xd9, 0x01, 0xac, 0x1d, 0x2d, 0xa0, 0x21, 0xdf, 0x58, 0x09, 0xcb,
  0x01, 0x51, 0x46, 0xae, 0x06, 0x71, 0xc2, 0xaa, 0x68, 0x97, 0x61, 0x12,
  0x7f, 0xd7, 0xd8, 0x1e, 0x5d, 0xd2, 0x99, 0x45, 0xfc, 0xe8, 0x3a, 0xb9,
  0x01, 0xde, 0x5b, 0x2c, 0x52, 0x50, 0xeb, 0xb5, 0x61, 0x48, 0xba, 0xb9,
  0xbd, 0x41, 0x26, 0xaf, 0xde, 0x55, 0x4b, 0xbe, 0xce, 0x29, 0x0b, 0x04,
  0xb6, 0x2e, 0x08, 0xab, 0xf3, 0x59, 0x31, 0x24, 0x1f, 0x24, 0x94, 0x98,
  0x44, 0xfc, 0x66, 0x66, 0x22, 0x4c, 0xab, 0xb7, 0x05, 0x1a, 0x1a, 0x69,
  0x3c, 0xb4, 0xd8, 0x59, 0xe3, 0xcd, 0x66, 0x4e, 0x0b, 0x4e, 0xb8, 0x55,
  0x23, 0xaf, 0x18, 0x62, 0x00, 0x08, 0xea, 0x44, 0x3c, 0x3b, 0x5c, 0xab,
  0xb6, 0x44, 0x4f, 0x43, 0x09, 0x56, 0xca, 0x93, 0x23, 0x60, 0x60, 0xe6,
  0x4a, 0x74, 0xb7, 0xe4, 0xbb, 0xc1, 0x04, 0xf5, 0xd8, 0x4d, 0x08, 0xb2,
  0xce, 0x72, 0xe2, 0x5a, 0xa6, 0x5d, 0x1e, 0x39, 0xd9, 0x01, 0x9d, 0xa1,
  0xd5, 0x30, 0x04, 0xad, 0xab, 0x08, 0x4c, 0x38, 0x16, 0x21, 0xee, 0xc2,
  0x30, 0x91, 0xfd, 0xca, 0x79, 0x0e, 0x4a, 0xd1, 0xec, 0xeb, 0xfc, 0xc8,
  0x74, 0xd6, 0xbe, 0x29, 0xaa, 0xec, 0xa4, 0x20, 0xe8, 0xbc, 0xfc, 0x91,
  0x0f, 0x72, 0xe6, 0xd8, 0x17, 0xf4, 0x20, 0xaf, 0xc1, 0x96, 0xb9, 0x5e,
  0xed, 0xc4, 0x37, 0xae, 0x3d, 0x4e, 0x32, 0xec, 0xc4, 0xa8, 0xf8, 0xb8,
  0xe7, 0xff, 0x66, 0xe3, 0xa4, 0xdb, 0x02, 0x06, 0x37, 0x08, 0x40, 0x2b,
  0x71, 0x8d, 0x65, 0xd4, 0xc7, 0xc9, 0x9b, 0xe7, 0x54, 0x55, 0x22, 0xe8,
  0x5f, 0xbb, 0xae, 0xa2, 0x2f, 0x34, 0xba, 0x1f, 0xe0, 0xe0, 0xeb, 0x0a,
  0xc7, 0x97, 0x37, 0xe7, 0x59, 0xc4, 0x26, 0xbe, 0x0c, 0x97, 0xb7, 0x96,
  0xa8, 0x46, 0x10, 0x48, 0x0e, 0xb9, 0xee, 0x91, 0xb5, 0x8b, 0xe7, 0xbd,
  0xe4, 0xd6, 0x29, 0x08, 0x0b, 0xac, 0x10, 0xe2, 0x47, 0x9a, 0x3c, 0x03,
  0x5b, 0x8a, 0x59, 0x8c, 0xeb, 0x00, 0xe2, 0x60, 0x52, 0xfc, 0xeb, 0xa0,
  0x12, 0xa8, 0xd7, 0xdb, 0xef, 0xdd, 0xbe, 0xbf, 0xf4, 0xaf, 0x40, 0x2e,
  0x44, 0x43, 0x14, 0x24, 0xc3, 0x26, 0x3d, 0xf6, 0xc0, 0x92, 0xde, 0x98,
  0xdb, 0x25, 0x21, 0x31, 0x97, 0xde, 0x1f, 0x31, 0xbe, 0xa1, 0xfe, 0xfe,
  0x36, 0xcc, 0xe3, 0x5d, 0x05, 0x4f, 0x0c, 0xe3, 0xf6, 0x0f, 0x34, 0x40,
  0xab, 0x0e, 0xb0, 0x99, 0x54, 0xb2, 0x9c, 0x2b, 0x8d, 0x32, 0xd7, 0x1c,
  0xf6, 0xcd, 0x64, 0xd8, 0x24, 0x41, 0xd1, 0xa2, 0x45, 0x6e, 0x51, 0x45,
  0xaf, 0xcf, 0x16, 0xa5, 0x8c, 0x9f, 0x21, 0xbc, 0x21, 0x48, 0x15, 0x9c,
  0x65, 0xe8, 0x42, 0x8e, 0x8d, 0x9a, 0x2d, 0xe1, 0x27, 0xab, 0xa1, 0x4a,
  0x26, 0xf8, 0xa1, 0x4a, 0xe7, 0x18, 0x4b, 0xb2, 0x54, 0xff, 0xf3, 0xf1,
  0x64, 0x28, 0x46, 0xe7, 0xdb, 0xc6, 0xd5, 0x28, 0xf5, 0xf2, 0x14, 0xac,
  0x10, 0xd7, 0x33, 0xcc, 0x94, 0x39, 0x3e, 0xd0, 0x48, 0x91, 0x04, 0xf6,
  0x28, 0xe0, 0xaf, 0xd3, 0xcb, 0x17, 0x34, 0x06, 0x03, 0x9c, 0x3e, 0x64,
  0x1c, 0x31, 0x1e, 0x52, 0xdd, 0x0d, 0x55, 0xb1, 0x36, 0xd2, 0x5e, 0x2b,
  0x1c, 0x1e, 0x31, 0xe3, 0x48, 0xa8, 0x1c, 0x5f, 0x21, 0x35, 0x3c, 0xc4,
  0xde, 0x44, 0xf7, 0xc7, 0x1d, 0x43, 0xec, 0xb2, 0xdf, 0x1b, 0xc7, 0x2a,
  0xa8, 0xf7, 0x1e, 0xea, 0x24, 0xa0, 0xef, 0xc2, 0xef, 0x56, 0x48, 0xfd,
  0xaa, 0x37, 0xb0, 0xaf, 0x55, 0x3a, 0x40, 0x11, 0x16, 0xa3, 0x30, 0xb2,
  0xd0, 0xdc, 0x0e, 0x49, 0x2e, 0x08, 0x37, 0xeb, 0xc6, 0x54, 0xe0, 0xfc,
  0x88, 0xc0, 0x4b, 0x0c, 0xec, 0x3a, 0x91, 0xe9, 0x12, 0xbc, 0xda, 0x16,
  0x9a, 0x0c, 0xe9, 0x03, 0xe8, 0xf8, 0xbe, 0x33, 0xbc, 0x12, 0xca, 0x3b,
  0xe0, 0xce, 0x26, 0xbd, 0xbe, 0x4e, 0xd8, 0xa8, 0xfb, 0x38, 0x08, 0xe5,
  0x4b, 0x46, 0x8f, 0x63, 0xeb, 0x8a, 0xb3, 0x52, 0x0e, 0x92, 0xa8, 0x2e,
  0x52, 0x4b, 0xff, 0x97, 0x48, 0x46, 0x12, 0xa4, 0xf7, 0x1a, 0x1b, 0x27,
  0x55, 0xa6, 0x37, 0x16, 0x66, 0x92, 0xcf, 0x9c, 0xa5, 0x05, 0x55, 0xf0,
  0xc4, 0x18, 0xac, 0x8c, 0x11, 0xce, 0xf1, 0xba, 0xc6, 0x1f, 0xc0, 0xee,
  0x67, 0xe5, 0x35, 0x4e, 0xe6, 0xec, 0xac, 0xe4, 0x0c, 0x68, 0x28, 0x91,
  0x48, 0x4d, 0x67, 0x93, 0x2d, 0xdf, 0x9a, 0xbd, 0x40, 0xc4, 0x9a, 0x16,
  0x11, 0x4e, 0xf8, 0xa9, 0xea, 0x8a, 0x0b, 0x39, 0xd5, 0xc5, 0xc9, 0x10,
  0x18, 0xdc, 0xe0, 0xf2, 0x8f, 0x26, 0xf3, 0xfd, 0x02, 0x21, 0xc9, 0x51,
  0xf1, 0x5c, 0x34, 0xe5, 0x51, 0x4f, 0x0c, 0xc0, 0x29, 0x66, 0xbd, 0xd8,
  0xaf, 0x92, 0xc9, 0xd2, 0xb3, 0x8b, 0xcb, 0xdd, 0xfe, 0xa0, 0x01, 0x01,
  0x2b, 0xbe, 0x26, 0xce, 0xc4, 0xc2, 0xe4, 0xba, 0x45, 0xaf, 0x1a, 0xae,
  0x41, 0xd1, 0x39, 0x66, 0xa4, 0x36, 0x52, 0x43, 0xb9, 0x2c, 0xdb, 0xdf,
  0xf5, 0xc4, 0xd1, 0xdd, 0x6c, 0xff, 0x92, 0x42, 0x63, 0xa5, 0xe9, 0xf2,
  0x1c, 0x20, 0x98, 0x61, 0x05, 0xab, 0x47, 0xe1, 0x3e, 0xc4, 0x0b, 0x91,
  0x57, 0xd5, 0x8c, 0xef, 0x4b, 0x4f, 0x2d, 0xdc, 0x9c, 0xde, 0xb5, 0x14,
  0xe7, 0x07, 0xd9, 0x24, 0x1f, 0xee, 0x30, 0xd2, 0xed, 0x3f, 0xe3, 0xf3,
  0xfc, 0x8b, 0x0e, 0x3c, 0x3d, 0x47, 0xc6, 0x37, 0xab, 0x0e, 0x8f, 0xe5,
  0x4f, 0xad, 0x18, 0x96, 0xbc, 0x0c, 0xf4, 0x47, 0x57, 0x04, 0x42, 0x60,
  0x3b, 0x58, 0x91, 0xac, 0x3a, 0x36, 0x43, 0x50, 0xce, 0x41, 0x13, 0x8b,
  0x10, 0x94, 0x4e, 0xe8, 0x26, 0x36, 0x0b, 0x11, 0x56, 0xf8, 0x22, 0x24,
  0x4a, 0x44, 0x5e, 0xa8, 0xbd, 0xd6, 0xce, 0x36, 0x39, 0x9f, 0x5c, 0x18,
  0x43, 0xcd, 0x1a, 0x20, 0x0e, 0x31, 0xb3, 0x91, 0x5d, 0x3e, 0xf3, 0x1a,
  0xfe, 0xbb, 0x3e, 0x49, 0x2e, 0xa4, 0x55, 0xdb, 0x98, 0x05, 0x26, 0x8c,
  0xca, 0x06, 0x08, 0x54, 0xcb, 0xb0, 0x15, 0xe0, 0x56, 0x4b, 0xbb, 0x18,
  0x12, 0x36, 0xc4, 0x3c, 0xa1, 0xfe, 0xae, 0x3f, 0x07, 0x1d, 0xe2, 0xc0,
  0xd2, 0x47, 0xd1, 0xad, 0x58, 0x18, 0x90, 0x4c, 0x2d, 0x3e, 0x54, 0x25,
  0x92, 0xbd, 0xa4, 0xaf, 0x5d, 0xe8, 0x0c, 0x1f, 0x1a, 0xe0, 0xad, 0x5c,
  0x59, 0x36, 0x23, 0x1c, 0x92, 0x5f, 0x95, 0xb2, 0xd2, 0xf1, 0xd2, 0x97,
  0x09, 0xd2, 0x4b, 0x90, 0xb6, 0xd5, 0xe7, 0xb8, 0x92, 0xcf, 0x37, 0x3a,
  0xe7, 0x90, 0xc3, 0xc7, 0xd0, 0xca, 0xed, 0x1f, 0x06, 0xf7, 0x18, 0x3b,
  0x06, 0xda, 0x2d, 0xf5, 0x05, 0xff, 0xe1, 0x56, 0xe4, 0x3b, 0x28, 0xfc,
  0xfa, 0xae, 0x33, 0xb6, 0xb0, 0x61, 0x02, 0x3b, 0xfa, 0xc7, 0xa7, 0xd4,
  0x69, 0x34, 0x20, 0xd8, 0xda, 0x0f, 0xdb, 0xa3, 0xb7, 0x0a, 0xfa, 0x08,
  0x29, 0xa6, 0x05, 0x6c, 0x4b, 0xe8, 0x8d, 0x2c, 0xbc, 0x17, 0x64, 0x48,
  0x28, 0x0f, 0x1b, 0x50, 0x9e, 0x28, 0x65, 0xa8, 0x2c, 0xf0, 0x52, 0xdf,
  0x44, 0x06, 0x48, 0x09, 0x90, 0x13, 0xa2, 0xa7, 0xd1, 0xc6, 0x56, 0x35,
  0xd5, 0xe7, 0xcf, 0x3a, 0x58, 0xb3, 0x93, 0x0c, 0x48, 0xd8, 0x05, 0xea,
  0x4b, 0x50, 0x2f, 0xe8, 0x0b, 0x53, 0x0e, 0x5f, 0x41, 0x64, 0x3b, 0xb0,
  0x01, 0xcb, 0xce, 0x38, 0x02, 0x47, 0x1b, 0x23, 0x93, 0x13, 0xc2, 0x61,
  0xff, 0x6b, 0x61, 0xae, 0x20, 0xd3, 0xf7, 0xb4, 0x8f, 0xf1, 0x09, 0x64,
  0x3d, 0x18, 0x94, 0xc5, 0xa4, 0x3e, 0x43, 0xf9, 0xbe, 0x32, 0xe4, 0x3c,
  0x0c, 0x69, 0x22, 0x9c, 0x55, 0xca, 0xf9, 0xb2, 0x29, 0x38, 0xe8, 0x03,
  0xa7, 0x27, 0x37, 0xae, 0x14, 0xa7, 0x37, 0xef, 0xed, 0xdd, 0xcf, 0xa6,
  0xae, 0x63, 0x9d, 0xcd, 0x2b, 0x54, 0x54, 0x2a, 0xeb, 0x8b, 0xf6, 0xdc,
  0xc7, 0xad, 0xc9, 0x08, 0x16, 0xef, 0xca, 0xb1, 0xe3, 0x57, 0xe5, 0x9b,
  0xb1, 0x16, 0x64, 0xbc, 0x57, 0x09, 0x0e, 0xeb, 0x47, 0x5c, 0xa7, 0x56,
  0xd3, 0xca, 0xe4, 0xaa, 0x5e, 0xa8, 0x94, 0x4a, 0xf8, 0x26, 0x0f, 0x9c,
  0x2f, 0xec, 0x11, 0xba, 0xf1, 0xc7, 0xae, 0x33, 0x0a, 0x2b, 0x43, 0xfc,
  0x24, 0xa2, 0xe5, 0x47, 0x48, 0x5e, 0x31, 0xf5, 0x24, 0x38, 0xd0, 0x29,
  0x4f, 0x0e, 0x46, 0x24, 0x0e, 0x9a, 0x8c, 0x5f, 0xc7, 0x07, 0x1f, 0x4a,
  0x04, 0xfc, 0xc9, 0x24, 0xbb, 0xbe, 0xd5, 0x00, 0x97, 0x63, 0x3e, 0xfb,
  0x28, 0x9d, 0x0d, 0x31, 0xda, 0x4e, 0x49, 0xfd, 0x0d, 0x55, 0xd8, 0xc1,
  0xf7, 0xcd, 0x2d, 0xcd, 0x3c, 0x99, 0x9f, 0xc8, 0xd5, 0xf1, 0x26, 0x66,
  0x30, 0xfe, 0x55, 0x4c, 0xea, 0xc4, 0xda, 0x2f, 0xe8, 0xb3, 0x8f, 0x5e,
  0xb4, 0x34, 0xec, 0xe9, 0x68, 0xbe, 0xd9, 0x38, 0x8f, 0x6b, 0xbd, 0xa1,
  0xcb, 0x4a, 0x2a, 0x1f, 0xf9, 0x40, 0x8d, 0x8c, 0xd5, 0x66, 0x64, 0xf5,
  0x3c, 0x3b, 0xb4, 0x25, 0xf5, 0x0c, 0x05, 0x4e, 0x50, 0x95, 0xca, 0x9d,
  0xe4, 0xda, 0x6d, 0x5c, 0xc7, 0xcf, 0x5b, 0x99, 0x24, 0xdf, 0xc2, 0x3d,
  0xbc, 0x62, 0x9d, 0x90, 0x5d, 0xe3, 0x49, 0x97, 0x29, 0x2f, 0xcb, 0x38,
  0xb8, 0x9a, 0xb3, 0x1e, 0x3e, 0xcf, 0x6c, 0x28, 0xbe, 0xf0, 0xa3, 0x14,
  0x5f, 0x9c, 0xa5, 0x3d, 0xc6, 0x63, 0x3b, 0xb2, 0x9c, 0xe1, 0xf9, 0xbb,
  0x49, 0x5d, 0x10, 0x26, 0x23, 0xbd, 0xbd, 0xbd, 0x99, 0x3d, 0x9a, 0x66,
  0x11, 0xca, 0xe0, 0x14, 0x94, 0x4c, 0x57, 0x10, 0xd1, 0xfb, 0xff, 0xdf,
  0xa1, 0x11, 0xd6, 0x9d, 0x28, 0xa0, 0x24, 0xc6, 0x47, 0xbe, 0xc2, 0xcb,
  0xba, 0x66, 0xaf, 0x1e, 0xbf, 0xfc, 0xa8, 0xc1, 0x01, 0xe1, 0xce, 0x1c,
  0x5e, 0x58, 0x16, 0xa4, 0x61, 0x31, 0x02, 0x1b, 0x8b, 0x6b, 0x27, 0x36,
  0x94, 0x26, 0xfe, 0xd1, 0xf1, 0xdd, 0xa2, 0xea, 0xa4, 0x2a, 0xf2, 0xcb,
  0x22, 0x95, 0x2f, 0xee, 0xf1, 0x12, 0x9a, 0xa6, 0x41, 0x20, 0xd9, 0xbb,
  0x45, 0xdc, 0x1e, 0x16, 0xf5, 0x2a, 0xf1, 0x00, 0x10, 0x1c, 0x09, 0x5d,
  0xd2, 0x4d, 0x5f, 0x49, 0x2b, 0xaa, 0xdf, 0x04, 0xa6, 0x08, 0xa6, 0xe4,
  0x9f, 0x95, 0xbc, 0xa8, 0xe2, 0xb9, 0x41, 0x3c, 0x1d, 0xec, 0x9c, 0xa4,
  0x6e, 0x86, 0xae, 0xbf, 0x05, 0x21, 0x09, 0x9f, 0x58, 0xfd, 0x18, 0x67,
  0x90, 0xde, 0x05, 0x04, 0x35, 0x61, 0xd6, 0x1b, 0x61, 0x41, 0xbf, 0xf1,
  0x0c, 0x5a, 0x01, 0xb0, 0x16, 0x50, 0x52, 0x08, 0x0c, 0xa3, 0xdc, 0xad,
  0x1c, 0xcb, 0x93, 0x31, 0x66, 0xa2, 0x4f, 0x04, 0xa4, 0xc4, 0xa0, 0x17,
  0xcd, 0xd6, 0x45, 0xc5, 0x1b, 0xbc, 0x19, 0xe2, 0x17, 0x57, 0x0c, 0x4e,
  0x2a, 0x9e, 0x11, 0x2e, 0x07, 0x43, 0xab, 0x0f, 0x2b, 0xa4, 0xe1, 0x6d,
  0x56, 0x08, 0xd0, 0xc4, 0xff, 0x6e, 0x38, 0x9e, 0x5b, 0xcd, 0x97, 0xd5,
  0x65, 0xa4, 0x25, 0xab, 0xd7, 0x97, 0xcc, 0x9d, 0x4f, 0x29, 0xb6, 0x1d,
  0x28, 0xb8, 0x24, 0xf5, 0x42, 0xe5, 0xd8, 0x1f, 0xab, 0x65, 0x27, 0x53,
  0xc8, 0xa8, 0x63, 0x66, 0x1f, 0x11, 0xed, 0xef, 0xfb, 0xd7, 0x27, 0x1a,
  0xee, 0xe9, 0x90, 0x38, 0xd9, 0x44, 0x1b, 0x23, 0x54, 0x60, 0x49, 0xf9,
  0xfd, 0x9b, 0x64, 0x0e, 0x4e, 0x3e, 0xaf, 0xd7, 0xa3, 0x63, 0xd8, 0x39,
  0x61, 0x57, 0x28, 0x98, 0x20, 0x92, 0xe7, 0x23, 0x2c, 0x5e, 0xee, 0x96,
  0x91, 0xad, 0xd6, 0xd0, 0x29, 0x9c, 0xdd, 0xa1, 0xf4, 0x08, 0xa8, 0xd3,
  0x27, 0xb4, 0x25, 0x03, 0x4e, 0xcc, 0x31, 0xde, 0x3b, 0x58, 0xb2, 0xd6,
  0x29, 0xa3, 0x98, 0xd8, 0x4a, 0x2b, 0x3a, 0xa0, 0x16, 0x1c, 0x47, 0x2f,
  0xb6, 0x23, 0xb1, 0xcf, 0xca, 0xe4, 0x68, 0x9d, 0x06, 0x84, 0x64, 0xa0,
  0x30, 0xbc, 0x12, 0x49, 0x42, 0xe3, 0x1b, 0xbe, 0xc5, 0x60, 0xd6, 0x44,
  0x08, 0x45, 0x30, 0xde, 0x87, 0x00, 0xa8, 0x3c, 0xeb, 0xad, 0x0f, 0x53,
  0xe5, 0xc7, 0x24, 0x8e, 0xbd, 0x56, 0x02, 0x54, 0x26, 0x31, 0x34, 0xb3,
  0xe6, 0x98, 0x1d, 0xf6, 0x5e, 0xd9, 0x0c, 0x8f, 0xe1, 0x49, 0xc8, 0xb8,
  0x27, 0x03, 0xf3, 0x46, 0x18, 0x3a, 0xb9, 0xd1, 0x60, 0x46, 0x91, 0xdf,
  0xea, 0xbf, 0xdd, 0xfc, 0x07, 0xd4, 0x8b, 0x1d, 0x7a, 0x5e, 0x14, 0xf3,
  0x0a, 0xd0, 0xfa, 0xfb, 0xac, 0x04, 0x1a, 0xee, 0xee, 0x9d, 0xdc, 0x1e,
  0xca, 0xae, 0x79, 0x69, 0x58, 0x27, 0xd7, 0xf8, 0xa0, 0x04, 0xbc, 0x24,
  0x1f, 0x36, 0xd6, 0x2d, 0x45, 0xd9, 0x61, 0x6f, 0x61, 0xba, 0xf5, 0xa8,
  0xe1, 0xa1, 0xbf, 0xba, 0xa7, 0x5e, 0xc7, 0x37, 0x2f, 0xc3, 0xb1, 0x29,
  0xc2, 0x5d, 0xc3, 0x70, 0x93, 0xba, 0xb6, 0x41, 0xf6, 0x04, 0x56, 0x6f,
  0xe3, 0x2e, 0x24, 0xe3, 0x1b, 0xa2, 0xd6, 0x17, 0x15, 0xa9, 0xc5, 0x07,
  0xa3, 0x48, 0xc5, 0x70, 0x3c, 0xfa, 0x60, 0x51, 0xca, 0xbd, 0xed, 0x28,
  0x1f, 0xde, 0x14, 0x18, 0x2d, 0x9e, 0xae, 0x4d, 0x24, 0x6a, 0x18, 0xe2,
  0xdf, 0xee, 0x98, 0xa4, 0x34, 0x61, 0x19, 0x56, 0xed, 0xe8, 0x1a, 0xc3,
  0x5f, 0xea, 0xa0, 0x60, 0x13, 0x50, 0x54, 0x10, 0xf4, 0x93, 0x39, 0x08,
  0x90, 0xae, 0x0a, 0x99, 0x65, 0x03, 0xc3, 0xbf, 0x90, 0x13, 0x05, 0xb9,
  0x06, 0x16, 0x97, 0x34, 0x05, 0x9e, 0xf7, 0x1b, 0x32, 0x95, 0x4d, 0x12,
  0x5b, 0x13, 0xcd, 0xe8, 0x28, 0x32, 0x2a, 0x09, 0xcc, 0xaa, 0xc0, 0x93,
  0x31, 0x42, 0xd1, 0x50, 0x29, 0xd3, 0xe7, 0xa9, 0x48, 0x94, 0xe2, 0x9b,
  0x3d, 0xd1, 0x3e, 0x4a, 0x0c, 0x21, 0x0b, 0xd6, 0xc3, 0x50, 0xa2, 0xae,
  0xb2, 0xa2, 0x16, 0x47, 0xa8, 0xf3, 0xf1, 0xaf, 0xd6, 0xf0, 0x59, 0x29,
  0x9f, 0x98, 0x4b, 0x11, 0x4d, 0x3d, 0xd1, 0xae, 0xce, 0x4c, 0xba, 0x05,
  0xcd, 0xe3, 0x02, 0x54, 0xe5, 0x6e, 0xdd, 0x9d, 0x61, 0xc3, 0xa2, 0xd5,
  0x02, 0xeb, 0xa3, 0x17, 0xf6, 0xd0, 0xe4, 0xf2, 0x28, 0x4e, 0xf4, 0x52,
  0xdd, 0x19, 0x12, 0xe6, 0xbc, 0x36, 0x9a, 0xdf, 0x2a, 0xf8, 0x21, 0x54,
  0x13, 0x11, 0x30, 0x53, 0xfa, 0xb2, 0x22, 0xaa, 0x00, 0xe0, 0xbc, 0x66,
  0x3a, 0x4b, 0xae, 0x64, 0x42, 0x4c, 0xd7, 0x9e, 0x1e, 0x4b, 0xc3, 0x4c,
  0xf0, 0xf4, 0xff, 0xae, 0xa3, 0xe1, 0xaa, 0x10, 0x05, 0x07, 0xaa, 0xff,
  0x5c, 0x1c, 0xb7, 0x90, 0x09, 0xb1, 0xa2, 0x5e, 0x3a, 0x57, 0x8c, 0x38,
  0x65, 0x21, 0x2f, 0xd8, 0x9b, 0x48, 0xda, 0x0d, 0xd1, 0x53, 0xd6, 0xd7,
  0x09, 0x60, 0x4b, 0xfb, 0xda, 0x94, 0xff, 0x33, 0x2b, 0x33, 0xf3, 0x8e,
  0x2b, 0x04, 0xb4, 0xc3, 0x44, 0x1e, 0x94, 0xb4, 0xf7, 0x69, 0x4b, 0xf7,
  0xcb, 0xf7, 0x98, 0xb9, 0x08, 0xbb, 0x27, 0xbc, 0x19, 0x41, 0x96, 0x5f,
  0x39, 0xfa, 0xc9, 0x1e, 0xd7, 0xcd, 0x6a, 0xa5, 0x28, 0x24, 0x5f, 0xe8,
  0xde, 0x98, 0xb0, 0x8c, 0xca, 0x00, 0x0d, 0xfd, 0xac, 0x4e, 0x19, 0x0a,
  0xca, 0xa0, 0x2d, 0x07, 0xd6, 0xe5, 0x15, 0x3e, 0xd1, 0x4b, 0x4d, 0x33,
  0xdd, 0xd3, 0xe8, 0x34, 0x07, 0xc5, 0x55, 0x2c, 0xa4, 0x4a, 0x2d, 0xb0,
  0x64, 0xc0, 0x1b, 0x96, 0xc6, 0x64, 0x13, 0x4f, 0xec, 0xb4, 0x97, 0xab,
  0xc8, 0xe1, 0x6a, 0x95, 0x9f, 0xca, 0xd6, 0xa9, 0xdd, 0x0a, 0x59, 0x55,
  0x48, 0x55, 0x9a, 0x41, 0xe2, 0x8a, 0xee, 0x95, 0xd9, 0x9c, 0x68, 0x8b,
  0xf3, 0x4f, 0xf6, 0x4d, 0xef, 0xfd, 0x61, 0xb9, 0x2f, 0x27, 0x12, 0x26,
  0xe7, 0x4b, 0x39, 0x3d, 0x2b, 0xcd, 0xfb, 0xc0, 0x49, 0x0e, 0x3c, 0x62,
  0xbf, 0xfe, 0x3e, 0x96, 0x46, 0xbf, 0xa3, 0x9d, 0xa7, 0xff, 0xa8, 0x91,
  0x1d, 0x08, 0xea, 0x4b, 0x58, 0xbe, 0xd7, 0xca, 0x2c, 0xa4, 0x8e, 0x22,
  0xa6, 0xe9, 0x0f, 0xec, 0x2b, 0x06, 0x57, 0xb3, 0x9b, 0x4e, 0x19, 0x3f,
  0xc6, 0x9a, 0x50, 0xe9, 0xb5, 0x43, 0xc5, 0xf9, 0x1b, 0x93, 0x20, 0xaa,
  0xfa, 0x30, 0x87, 0x92, 0xdc, 0x60, 0xf7, 0xba, 0x5e, 0x14, 0xac, 0x0b,
  0x0e, 0x2a, 0x2e, 0x4a, 0xb8, 0x3c, 0x51, 0xa9, 0x2e, 0x5a, 0xd6, 0x56,
  0x62, 0xa9, 0x8a, 0x02, 0x15, 0x25, 0xdc, 0xbd, 0x31, 0x0c, 0x2b, 0xad,
  0xdc, 0x27, 0x10, 0xaf, 0x31, 0x3c, 0x56, 0x01, 0xeb, 0x5a, 0x89, 0x15,
  0x93, 0xa4, 0xcc, 0x48, 0xd9, 0xa6, 0x60, 0xf8, 0x2a, 0xd4, 0xbc, 0x07,
  0x90, 0xea, 0xe3, 0x9a, 0xbb, 0x5e, 0x87, 0x99, 0xee, 0x70, 0x50, 0xe1,
  0xe6, 0x8d, 0x63, 0x09, 0xb4, 0xba, 0x19, 0x92, 0x44, 0xd2, 0xad, 0x08,
  0x59, 0x6a, 0x47, 0x53, 0x62, 0x59, 0xbd, 0xaa, 0x53, 0xa9, 0x3e, 0x2d,
  0x91, 0x26, 0x14, 0xd9, 0xa3, 0x53, 0x45, 0x87, 0xe2, 0xa3, 0xd8, 0xa6,
  0x33, 0xfc, 0x47, 0xdb, 0x44, 0xf5, 0xd8, 0x3b, 0x0e, 0x00, 0x0a, 0xc9,
  0x13, 0x2c, 0x43, 0x1c, 0x1e, 0x99, 0x02, 0x42, 0x58, 0xea, 0x37, 0x21,
  0xc8, 0x22, 0xf9, 0x9a, 0x9e, 0xd3, 0x63, 0x13, 0xee, 0xa1, 0xfb, 0x30,
  0x36, 0x50, 0xcb, 0x5f, 0x3f, 0x98, 0xe4, 0x38, 0x03, 0x8b, 0x5a, 0x8d,
  0xbf, 0x1a, 0x11, 0xc7, 0xfd, 0x47, 0xe6, 0x22, 0xb4, 0xd4, 0x59, 0xd8,
  0xa6, 0x18, 0xa6, 0xdb, 0xec, 0x53, 0xa1, 0x0c, 0x48, 0x06, 0x67, 0x5e,
  0x36, 0x1b, 0xa3, 0x12, 0xed, 0x44, 0x1c, 0x0d, 0xe1, 0x08, 0x1f, 0xe3,
  0xf3, 0x2b, 0x22, 0x21, 0x8c, 0x5d, 0x96, 0x18, 0x8d, 0x36, 0xa1, 0xf6,
  0xad, 0xde, 0x49, 0xe3, 0xd2, 0xe4, 0x07, 0x24, 0xb8, 0xad, 0xb0, 0x15,
  0xf1, 0xc6, 0xc3, 0xd4, 0xc4, 0xc6, 0x1d, 0x8a, 0x1c, 0xa4, 0xd4, 0x11,
  0x9b, 0x96, 0xce, 0xc9, 0x51, 0xb0, 0x4e, 0xf0, 0x9c, 0xbb, 0xec, 0xc9,
  0x9d, 0xdd, 0xcc, 0x8e, 0x21, 0xe9, 0xc1, 0x45, 0xf8, 0xfb, 0xcf, 0x44,
  0x90, 0xad, 0xa9, 0xc7, 0x4f, 0x3b, 0xbe, 0x3d, 0x10, 0xda, 0xbc, 0xaf,
  0x3e, 0xb9, 0x5a, 0x04, 0xdb, 0xf0, 0x55, 0x8c, 0x32, 0x07, 0xa8, 0xc5,
  0x28, 0xe3, 0x8a, 0xb3, 0x2f, 0xad, 0xd4, 0xe8, 0xef, 0xcd, 0xe4, 0x19,
  0xb0, 0xb7, 0x54, 0xdd, 0x0a, 0x2f, 0xa6, 0x56, 0x18, 0xc9, 0x4a, 0xe2,
  0x93, 0x66, 0xb7, 0x32, 0xf1, 0x30, 0x41, 0x65, 0x4d, 0x3a, 0x33, 0xbe,
  0xfa, 0xee, 0xbf, 0xc6, 0x8b, 0x0e, 0xd0, 0x1e, 0x32, 0x6f, 0x50, 0x4c,
  0xff, 0x49, 0xbd, 0xcf, 0x58, 0x2e, 0xae, 0x9f, 0x33, 0xd5, 0xbc, 0x00,
  0xf7, 0xe3, 0xcc, 0x98, 0x60, 0xbf, 0x24, 0xaa, 0x4c, 0x21, 0xc1, 0xac,
  0x61, 0xe8, 0x39, 0xf0, 0x40, 0xf0, 0xd7, 0x05, 0x12, 0x31, 0xbd, 0xc3,
  0x3f, 0xa5, 0x91, 0xf5, 0xa4, 0x3c, 0xc6, 0xef, 0xdb, 0x33, 0x28, 0xbc,
  0xb6, 0xfe, 0xff, 0xff, 0x04, 0x00, 0x00, 0x00, 0x40, 0x00, 0x00, 0x00,
  0xf8, 0xff, 0xff, 0xff, 0xf1, 0xff, 0xff, 0xff, 0xde, 0xff, 0xff, 0xff,
  0x1d, 0x00, 0x00, 0x00, 0xef, 0xff, 0xff, 0xff, 0x16, 0x00, 0x00, 0x00,
  0xe6, 0xff, 0xff, 0xff, 0x2d, 0x00, 0x00, 0x00, 0x16, 0x00, 0x00, 0x00,
  0x37, 0x00, 0x00, 0x00, 0xd6, 0xff, 0xff, 0xff, 0xd9, 0xff, 0xff, 0xff,
  0xe1, 0xff, 0xff, 0xff, 0xf7, 0xff, 0xff, 0xff, 0xe3, 0xff, 0xff, 0xff,
  0xcd, 0xff, 0xff, 0xff, 0x02, 0xff, 0xff, 0xff, 0x04, 0x00, 0x00, 0x00,
  0x30, 0x00, 0x00, 0x00, 0x7f, 0xfa, 0x6a, 0x19, 0xc6, 0xff, 0x85, 0x25,
  0x2a, 0x3f, 0xae, 0xd4, 0x0c, 0xf2, 0xd9, 0xef, 0x84, 0xe0, 0xac, 0x8b,
  0x77, 0x9d, 0x5e, 0x32, 0x13, 0x4e, 0x62, 0xe9, 0x76, 0x39, 0x71, 0x0b,
  0x7a, 0xa3, 0x8d, 0x5d, 0x00, 0xc4, 0xa7, 0x49, 0x4b, 0x78, 0xa9, 0xe1,
  0x96, 0x0f, 0xc2, 0xe3, 0x3e, 0xff, 0xff, 0xff, 0x04, 0x00, 0x00, 0x00,
  0x0c, 0x00, 0x00, 0x00, 0x0f, 0x00, 0x00, 0x00, 0x01, 0x00, 0x00, 0x00,
  0xf6, 0xff, 0xff, 0xff, 0x56, 0xff, 0xff, 0xff, 0x04, 0x00, 0x00, 0x00,
  0x08, 0x00, 0x00, 0x00, 0xff, 0xff, 0xff, 0xff, 0x80, 0x01, 0x00, 0x00,
  0xc0, 0xf1, 0xff, 0xff, 0xc4, 0xf1, 0xff, 0xff, 0x0f, 0x00, 0x00, 0x00,
  0x4d, 0x4c, 0x49, 0x52, 0x20, 0x43, 0x6f, 0x6e, 0x76, 0x65, 0x72, 0x74,
  0x65, 0x64, 0x2e, 0x00, 0x01, 0x00, 0x00, 0x00, 0x14, 0x00, 0x00, 0x00,
  0x00, 0x00, 0x0e, 0x00, 0x18, 0x00, 0x14, 0x00, 0x10, 0x00, 0x0c, 0x00,
  0x08, 0x00, 0x04, 0x00, 0x0e, 0x00, 0x00, 0x00, 0x14, 0x00, 0x00, 0x00,
  0x1c, 0x00, 0x00, 0x00, 0x44, 0x02, 0x00, 0x00, 0x48, 0x02, 0x00, 0x00,
  0x4c, 0x02, 0x00, 0x00, 0x04, 0x00, 0x00, 0x00, 0x6d, 0x61, 0x69, 0x6e,
  0x00, 0x00, 0x00, 0x00, 0x08, 0x00, 0x00, 0x00, 0xe0, 0x01, 0x00, 0x00,
  0x80, 0x01, 0x00, 0x00, 0x30, 0x01, 0x00, 0x00, 0xf0, 0x00, 0x00, 0x00,
  0xc8, 0x00, 0x00, 0x00, 0x78, 0x00, 0x00, 0x00, 0x40, 0x00, 0x00, 0x00,
  0x04, 0x00, 0x00, 0x00, 0xaa, 0xfe, 0xff, 0xff, 0x1c, 0x00, 0x00, 0x00,
  0x00, 0x00, 0x00, 0x09, 0x1c, 0x00, 0x00, 0x00, 0x20, 0x00, 0x00, 0x00,
  0x04, 0x00, 0x00, 0x00, 0x00, 0x00, 0x06, 0x00, 0x08, 0x00, 0x04, 0x00,
  0x06, 0x00, 0x00, 0x00, 0x00, 0x00, 0x80, 0x3f, 0x01, 0x00, 0x00, 0x00,
  0x11, 0x00, 0x00, 0x00, 0x01, 0x00, 0x00, 0x00, 0x10, 0x00, 0x00, 0x00,
  0xe2, 0xfe, 0xff, 0xff, 0x14, 0x00, 0x00, 0x00, 0x00, 0x00, 0x00, 0x08,
  0x10, 0x00, 0x00, 0x00, 0x14, 0x00, 0x00, 0x00, 0x03, 0x00, 0x00, 0x00,
  0x8c, 0xf2, 0xff, 0xff, 0x01, 0x00, 0x00, 0x00, 0x10, 0x00, 0x00, 0x00,
  0x03, 0x00, 0x00, 0x00, 0x0f, 0x00, 0x00, 0x00, 0x03, 0x00, 0x00, 0x00,
  0x02, 0x00, 0x00, 0x00, 0x16, 0xff, 0xff, 0xff, 0x1c, 0x00, 0x00, 0x00,
  0x00, 0x00, 0x00, 0x08, 0x1c, 0x00, 0x00, 0x00, 0x20, 0x00, 0x00, 0x00,
  0x03, 0x00, 0x00, 0x00, 0x00, 0x00, 0x06, 0x00, 0x08, 0x00, 0x07, 0x00,
  0x06, 0x00, 0x00, 0x00, 0x00, 0x00, 0x00, 0x01, 0x01, 0x00, 0x00, 0x00,
  0x0f, 0x00, 0x00, 0x00, 0x03, 0x00, 0x00, 0x00, 0x0e, 0x00, 0x00, 0x00,
  0x05, 0x00, 0x00, 0x00, 0x04, 0x00, 0x00, 0x00, 0x00, 0x00, 0x0a, 0x00,
  0x10, 0x00, 0x0c, 0x00, 0x08, 0x00, 0x04, 0x00, 0x0a, 0x00, 0x00, 0x00,
  0x0c, 0x00, 0x00, 0x00, 0x10, 0x00, 0x00, 0x00, 0x02, 0x00, 0x00, 0x00,
  0x01, 0x00, 0x00, 0x00, 0x0e, 0x00, 0x00, 0x00, 0x02, 0x00, 0x00, 0x00,
  0x0d, 0x00, 0x00, 0x00, 0x01, 0x00, 0x00, 0x00, 0x86, 0xff, 0xff, 0xff,
  0x14, 0x00, 0x00, 0x00, 0x00, 0x00, 0x00, 0x05, 0x20, 0x00, 0x00, 0x00,
  0x24, 0x00, 0x00, 0x00, 0x01, 0x00, 0x00, 0x00, 0x76, 0xff, 0xff, 0xff,
  0x02, 0x00, 0x00, 0x00, 0x02, 0x00, 0x00, 0x00, 0x02, 0x00, 0x00, 0x00,
  0x02, 0x00, 0x00, 0x00, 0x01, 0x00, 0x00, 0x00, 0x0d, 0x00, 0x00, 0x00,
  0x01, 0x00, 0x00, 0x00, 0x0c, 0x00, 0x00, 0x00, 0x66, 0xff, 0xff, 0xff,
  0x10, 0x00, 0x00, 0x00, 0x00, 0x00, 0x00, 0x01, 0x18, 0x00, 0x00, 0x00,
  0x1c, 0x00, 0x00, 0x00, 0x58, 0xff, 0xff, 0xff, 0x00, 0x00, 0x00, 0x01,
  0x01, 0x00, 0x00, 0x00, 0x01, 0x00, 0x00, 0x00, 0x01, 0x00, 0x00, 0x00,
  0x0c, 0x00, 0x00, 0x00, 0x03, 0x00, 0x00, 0x00, 0x0b, 0x00, 0x00, 0x00,
  0x07, 0x00, 0x00, 0x00, 0x06, 0x00, 0x00, 0x00, 0x00, 0x00, 0x0e, 0x00,
  0x1a, 0x00, 0x14, 0x00, 0x10, 0x00, 0x0c, 0x00, 0x0b, 0x00, 0x04, 0x00,
  0x0e, 0x00, 0x00, 0x00, 0x24, 0x00, 0x00, 0x00, 0x00, 0x00, 0x00, 0x05,
  0x30, 0x00, 0x00, 0x00, 0x34, 0x00, 0x00, 0x00, 0x01, 0x00, 0x00, 0x00,
  0x00, 0x00, 0x0e, 0x00, 0x14, 0x00, 0x00, 0x00, 0x10, 0x00, 0x0c, 0x00,
  0x08, 0x00, 0x04, 0x00, 0x0e, 0x00, 0x00, 0x00, 0x02, 0x00, 0x00, 0x00,
  0x02, 0x00, 0x00, 0x00, 0x02, 0x00, 0x00, 0x00, 0x02, 0x00, 0x00, 0x00,
  0x01, 0x00, 0x00, 0x00, 0x0b, 0x00, 0x00, 0x00, 0x01, 0x00, 0x00, 0x00,
  0x0a, 0x00, 0x00, 0x00, 0x00, 0x00, 0x0e, 0x00, 0x14, 0x00, 0x00, 0x00,
  0x10, 0x00, 0x0c, 0x00, 0x0b, 0x00, 0x04, 0x00, 0x0e, 0x00, 0x00, 0x00,
  0x1c, 0x00, 0x00, 0x00, 0x00, 0x00, 0x00, 0x01, 0x24, 0x00, 0x00, 0x00,
  0x28, 0x00, 0x00, 0x00, 0x0c, 0x00, 0x10, 0x00, 0x00, 0x00, 0x0c, 0x00,
  0x08, 0x00, 0x07, 0x00, 0x0c, 0x00, 0x00, 0x00, 0x00, 0x00, 0x00, 0x01,
  0x01, 0x00, 0x00, 0x00, 0x01, 0x00, 0x00, 0x00, 0x01, 0x00, 0x00, 0x00,
  0x0a, 0x00, 0x00, 0x00, 0x03, 0x00, 0x00, 0x00, 0x00, 0x00, 0x00, 0x00,
  0x09, 0x00, 0x00, 0x00, 0x08, 0x00, 0x00, 0x00, 0x01, 0x00, 0x00, 0x00,
  0x11, 0x00, 0x00, 0x00, 0x01, 0x00, 0x00, 0x00, 0x00, 0x00, 0x00, 0x00,
  0x12, 0x00, 0x00, 0x00, 0xf4, 0x0b, 0x00, 0x00, 0x88, 0x0b, 0x00, 0x00,
  0xf0, 0x0a, 0x00, 0x00, 0x7c, 0x0a, 0x00, 0x00, 0x00, 0x0a, 0x00, 0x00,
  0x8c, 0x09, 0x00, 0x00, 0xb8, 0x08, 0x00, 0x00, 0xec, 0x07, 0x00, 0x00,
  0xb8, 0x06, 0x00, 0x00, 0x8c, 0x05, 0x00, 0x00, 0x90, 0x04, 0x00, 0x00,
  0xf4, 0x03, 0x00, 0x00, 0xf8, 0x02, 0x00, 0x00, 0x5c, 0x02, 0x00, 0x00,
  0xd8, 0x01, 0x00, 0x00, 0x1c, 0x01, 0x00, 0x00, 0x80, 0x00, 0x00, 0x00,
  0x04, 0x00, 0x00, 0x00, 0x6a, 0xf4, 0xff, 0xff, 0x00, 0x00, 0x00, 0x01,
  0x18, 0x00, 0x00, 0x00, 0x20, 0x00, 0x00, 0x00, 0x3c, 0x00, 0x00, 0x00,
  0x12, 0x00, 0x00, 0x00, 0x00, 0x00, 0x00, 0x09, 0x50, 0x00, 0x00, 0x00,
  0x02, 0x00, 0x00, 0x00, 0xff, 0xff, 0xff, 0xff, 0x03, 0x00, 0x00, 0x00,
  0x4c, 0xf4, 0xff, 0xff, 0x08, 0x00, 0x00, 0x00, 0x10, 0x00, 0x00, 0x00,
  0x01, 0x00, 0x00, 0x00, 0x80, 0xff, 0xff, 0xff, 0xff, 0xff, 0xff, 0xff,
  0x01, 0x00, 0x00, 0x00, 0x00, 0x00, 0x80, 0x3b, 0x19, 0x00, 0x00, 0x00,
  0x53, 0x74, 0x61, 0x74, 0x65, 0x66, 0x75, 0x6c, 0x50, 0x61, 0x72, 0x74,
  0x69, 0x74, 0x69, 0x6f, 0x6e, 0x65, 0x64, 0x43, 0x61, 0x6c, 0x6c, 0x3a,
  0x30, 0x00, 0x00, 0x00, 0x02, 0x00, 0x00, 0x00, 0x01, 0x00, 0x00, 0x00,
  0x03, 0x00, 0x00, 0x00, 0xe2, 0xf4, 0xff, 0xff, 0x00, 0x00, 0x00, 0x01,
  0x18, 0x00, 0x00, 0x00, 0x20, 0x00, 0x00, 0x00, 0x3c, 0x00, 0x00, 0x00,
  0x11, 0x00, 0x00, 0x00, 0x00, 0x00, 0x00, 0x09, 0x70, 0x00, 0x00, 0x00,
  0x02, 0x00, 0x00, 0x00, 0xff, 0xff, 0xff, 0xff, 0x03, 0x00, 0x00, 0x00,
  0xc4, 0xf4, 0xff, 0xff, 0x08, 0x00, 0x00, 0x00, 0x10, 0x00, 0x00, 0x00,
  0x01, 0x00, 0x00, 0x00, 0xfd, 0xff, 0xff, 0xff, 0xff, 0xff, 0xff, 0xff,
  0x01, 0x00, 0x00, 0x00, 0x5b, 0x7a, 0xc8, 0x3e, 0x3a, 0x00, 0x00, 0x00,
  0x73, 0x65, 0x71, 0x75, 0x65, 0x6e, 0x74, 0x69, 0x61, 0x6c, 0x5f, 0x37,
  0x2f, 0x64, 0x65, 0x6e, 0x73, 0x65, 0x5f, 0x31, 0x35, 0x2f, 0x4d, 0x61,
  0x74, 0x4d, 0x75, 0x6c, 0x3b, 0x73, 0x65, 0x71, 0x75, 0x65, 0x6e, 0x74,
  0x69, 0x61, 0x6c, 0x5f, 0x37, 0x2f, 0x64, 0x65, 0x6e, 0x73, 0x65, 0x5f,
  0x31, 0x35, 0x2f, 0x42, 0x69, 0x61, 0x73, 0x41, 0x64, 0x64, 0x00, 0x00,
  0x02, 0x00, 0x00, 0x00, 0x01, 0x00, 0x00, 0x00, 0x03, 0x00, 0x00, 0x00,
  0x7a, 0xf5, 0xff, 0xff, 0x00, 0x00, 0x00, 0x01, 0x18, 0x00, 0x00, 0x00,
  0x20, 0x00, 0x00, 0x00, 0x40, 0x00, 0x00, 0x00, 0x10, 0x00, 0x00, 0x00,
  0x00, 0x00, 0x00, 0x09, 0x90, 0x00, 0x00, 0x00, 0x02, 0x00, 0x00, 0x00,
  0xff, 0xff, 0xff, 0xff, 0x10, 0x00, 0x00, 0x00, 0x5c, 0xf5, 0xff, 0xff,
  0x08, 0x00, 0x00, 0x00, 0x14, 0x00, 0x00, 0x00, 0x01, 0x00, 0x00, 0x00,
  0x80, 0xff, 0xff, 0xff, 0xff, 0xff, 0xff, 0xff, 0x00, 0x00, 0x00, 0x00,
  0x01, 0x00, 0x00, 0x00, 0x76, 0x19, 0x3b, 0x3e, 0x55, 0x00, 0x00, 0x00,
  0x73, 0x65, 0x71, 0x75, 0x65, 0x6e, 0x74, 0x69, 0x61, 0x6c, 0x5f, 0x37,
  0x2f, 0x64, 0x65, 0x6e, 0x73, 0x65, 0x5f, 0x31, 0x34, 0x2f, 0x4d, 0x61,
  0x74, 0x4d, 0x75, 0x6c, 0x3b, 0x73, 0x65, 0x71, 0x75, 0x65, 0x6e, 0x74,
  0x69, 0x61, 0x6c, 0x5f, 0x37, 0x2f, 0x64, 0x65, 0x6e, 0x73, 0x65, 0x5f,
  0x31, 0x34, 0x2f, 0x52, 0x65, 0x6c, 0x75, 0x3b, 0x73, 0x65, 0x71, 0x75,
  0x65, 0x6e, 0x74, 0x69, 0x61, 0x6c, 0x5f, 0x37, 0x2f, 0x64, 0x65, 0x6e,
  0x73, 0x65, 0x5f, 0x31, 0x34, 0x2f, 0x42, 0x69, 0x61, 0x73, 0x41, 0x64,
  0x64, 0x00, 0x00, 0x00, 0x02, 0x00, 0x00, 0x00, 0x01, 0x00, 0x00, 0x00,
  0x10, 0x00, 0x00, 0x00, 0x32, 0xf6, 0xff, 0xff, 0x00, 0x00, 0x00, 0x01,
  0x18, 0x00, 0x00, 0x00, 0x20, 0x00, 0x00, 0x00, 0x40, 0x00, 0x00, 0x00,
  0x0f, 0x00, 0x00, 0x00, 0x00, 0x00, 0x00, 0x09, 0x58, 0x00, 0x00, 0x00,
  0x02, 0x00, 0x00, 0x00, 0xff, 0xff, 0xff, 0xff, 0x80, 0x01, 0x00, 0x00,
  0x14, 0xf6, 0xff, 0xff, 0x08, 0x00, 0x00, 0x00, 0x14, 0x00, 0x00, 0x00,
  0x01, 0x00, 0x00, 0x00, 0x80, 0xff, 0xff, 0xff, 0xff, 0xff, 0xff, 0xff,
  0x00, 0x00, 0x00, 0x00, 0x01, 0x00, 0x00, 0x00, 0x9c, 0xa0, 0x5a, 0x3e,
  0x1e, 0x00, 0x00, 0x00, 0x73, 0x65, 0x71, 0x75, 0x65, 0x6e, 0x74, 0x69,
  0x61, 0x6c, 0x5f, 0x37, 0x2f, 0x66, 0x6c, 0x61, 0x74, 0x74, 0x65, 0x6e,
  0x5f, 0x37, 0x2f, 0x52, 0x65, 0x73, 0x68, 0x61, 0x70, 0x65, 0x00, 0x00,
  0x02, 0x00, 0x00, 0x00, 0x01, 0x00, 0x00, 0x00, 0x80, 0x01, 0x00, 0x00,
  0xb2, 0xf6, 0xff, 0xff, 0x00, 0x00, 0x00, 0x01, 0x18, 0x00, 0x00, 0x00,
  0x28, 0x00, 0x00, 0x00, 0x48, 0x00, 0x00, 0x00, 0x0e, 0x00, 0x00, 0x00,
  0x00, 0x00, 0x00, 0x09, 0x68, 0x00, 0x00, 0x00, 0x04, 0x00, 0x00, 0x00,
  0xff, 0xff, 0xff, 0xff, 0x06, 0x00, 0x00, 0x00, 0x08, 0x00, 0x00, 0x00,
  0x08, 0x00, 0x00, 0x00, 0x9c, 0xf6, 0xff, 0xff, 0x08, 0x00, 0x00, 0x00,
  0x14, 0x00, 0x00, 0x00, 0x01, 0x00, 0x00, 0x00, 0x80, 0xff, 0xff, 0xff,
  0xff, 0xff, 0xff, 0xff, 0x00, 0x00, 0x00, 0x00, 0x01, 0x00, 0x00, 0x00,
  0x9c, 0xa0, 0x5a, 0x3e, 0x25, 0x00, 0x00, 0x00, 0x73, 0x65, 0x71, 0x75,
  0x65, 0x6e, 0x74, 0x69, 0x61, 0x6c, 0x5f, 0x37, 0x2f, 0x6d, 0x61, 0x78,
  0x5f, 0x70, 0x6f, 0x6f, 0x6c, 0x69, 0x6e, 0x67, 0x32, 0x64, 0x5f, 0x31,
  0x35, 0x2f, 0x4d, 0x61, 0x78, 0x50, 0x6f, 0x6f, 0x6c, 0x00, 0x00, 0x00,
  0x04, 0x00, 0x00, 0x00, 0x01, 0x00, 0x00, 0x00, 0x06, 0x00, 0x00, 0x00,
  0x08, 0x00, 0x00, 0x00, 0x08, 0x00, 0x00, 0x00, 0x4a, 0xf7, 0xff, 0xff,
  0x00, 0x00, 0x00, 0x01, 0x18, 0x00, 0x00, 0x00, 0x28, 0x00, 0x00, 0x00,
  0x48, 0x00, 0x00, 0x00, 0x0d, 0x00, 0x00, 0x00, 0x00, 0x00, 0x00, 0x09,
  0xc8, 0x00, 0x00, 0x00, 0x04, 0x00, 0x00, 0x00, 0xff, 0xff, 0xff, 0xff,
  0x0c, 0x00, 0x00, 0x00, 0x10, 0x00, 0x00, 0x00, 0x08, 0x00, 0x00, 0x00,
  0x34, 0xf7, 0xff, 0xff, 0x08, 0x00, 0x00, 0x00, 0x14, 0x00, 0x00, 0x00,
  0x01, 0x00, 0x00, 0x00, 0x80, 0xff, 0xff, 0xff, 0xff, 0xff, 0xff, 0xff,
  0x00, 0x00, 0x00, 0x00, 0x01, 0x00, 0x00, 0x00, 0x9c, 0xa0, 0x5a, 0x3e,
  0x86, 0x00, 0x00, 0x00, 0x73, 0x65, 0x71, 0x75, 0x65, 0x6e, 0x74, 0x69,
  0x61, 0x6c, 0x5f, 0x37, 0x2f, 0x63, 0x6f, 0x6e, 0x76, 0x32, 0x64, 0x5f,
  0x31, 0x35, 0x2f, 0x52, 0x65, 0x6c, 0x75, 0x3b, 0x73, 0x65, 0x71, 0x75,
  0x65, 0x6e, 0x74, 0x69, 0x61, 0x6c, 0x5f, 0x37, 0x2f, 0x63, 0x6f, 0x6e,
  0x76, 0x32, 0x64, 0x5f, 0x31, 0x35, 0x2f, 0x42, 0x69, 0x61, 0x73, 0x41,
  0x64, 0x64, 0x3b, 0x73, 0x65, 0x71, 0x75, 0x65, 0x6e, 0x74, 0x69, 0x61,
  0x6c, 0x5f, 0x37, 0x2f, 0x63, 0x6f, 0x6e, 0x76, 0x32, 0x64, 0x5f, 0x31,
  0x35, 0x2f, 0x43, 0x6f, 0x6e, 0x76, 0x32, 0x44, 0x3b, 0x73, 0x65, 0x71,
  0x75, 0x65, 0x6e, 0x74, 0x69, 0x61, 0x6c, 0x5f, 0x37, 0x2f, 0x63, 0x6f,
  0x6e, 0x76, 0x32, 0x64, 0x5f, 0x31, 0x35, 0x2f, 0x42, 0x69, 0x61, 0x73,
  0x41, 0x64, 0x64, 0x2f, 0x52, 0x65, 0x61, 0x64, 0x56, 0x61, 0x72, 0x69,
  0x61, 0x62, 0x6c, 0x65, 0x4f, 0x70, 0x00, 0x00, 0x04, 0x00, 0x00, 0x00,
  0x01, 0x00, 0x00, 0x00, 0x0c, 0x00, 0x00, 0x00, 0x10, 0x00, 0x00, 0x00,
  0x08, 0x00, 0x00, 0x00, 0x42, 0xf8, 0xff, 0xff, 0x00, 0x00, 0x00, 0x01,
  0x18, 0x00, 0x00, 0x00, 0x28, 0x00, 0x00, 0x00, 0x48, 0x00, 0x00, 0x00,
  0x0c, 0x00, 0x00, 0x00, 0x00, 0x00, 0x00, 0x09, 0x68, 0x00, 0x00, 0x00,
  0x04, 0x00, 0x00, 0x00, 0xff, 0xff, 0xff, 0xff, 0x0c, 0x00, 0x00, 0x00,
  0x10, 0x00, 0x00, 0x00, 0x10, 0x00, 0x00, 0x00, 0x2c, 0xf8, 0xff, 0xff,
  0x08, 0x00, 0x00, 0x00, 0x14, 0x00, 0x00, 0x00, 0x01, 0x00, 0x00, 0x00,
  0x80, 0xff, 0xff, 0xff, 0xff, 0xff, 0xff, 0xff, 0x00, 0x00, 0x00, 0x00,
  0x01, 0x00, 0x00, 0x00, 0x24, 0xca, 0xb2, 0x3e, 0x25, 0x00, 0x00, 0x00,
  0x73, 0x65, 0x71, 0x75, 0x65, 0x6e, 0x74, 0x69, 0x61, 0x6c, 0x5f, 0x37,
  0x2f, 0x6d, 0x61, 0x78, 0x5f, 0x70, 0x6f, 0x6f, 0x6c, 0x69, 0x6e, 0x67,
  0x32, 0x64, 0x5f, 0x31, 0x34, 0x2f, 0x4d, 0x61, 0x78, 0x50, 0x6f, 0x6f,
  0x6c, 0x00, 0x00, 0x00, 0x04, 0x00, 0x00, 0x00, 0x01, 0x00, 0x00, 0x00,
  0x0c, 0x00, 0x00, 0x00, 0x10, 0x00, 0x00, 0x00, 0x10, 0x00, 0x00, 0x00,
  0xda, 0xf8, 0xff, 0xff, 0x00, 0x00, 0x00, 0x01, 0x18, 0x00, 0x00, 0x00,
  0x28, 0x00, 0x00, 0x00, 0x48, 0x00, 0x00, 0x00, 0x0b, 0x00, 0x00, 0x00,
  0x00, 0x00, 0x00, 0x09, 0xc8, 0x00, 0x00, 0x00, 0x04, 0x00, 0x00, 0x00,
  0xff, 0xff, 0xff, 0xff, 0x18, 0x00, 0x00, 0x00, 0x20, 0x00, 0x00, 0x00,
  0x10, 0x00, 0x00, 0x00, 0xc4, 0xf8, 0xff, 0xff, 0x08, 0x00, 0x00, 0x00,
  0x14, 0x00, 0x00, 0x00, 0x01, 0x00, 0x00, 0x00, 0x80, 0xff, 0xff, 0xff,
  0xff, 0xff, 0xff, 0xff, 0x00, 0x00, 0x00, 0x00, 0x01, 0x00, 0x00, 0x00,
  0x24, 0xca, 0xb2, 0x3e, 0x86, 0x00, 0x00, 0x00, 0x73, 0x65, 0x71, 0x75,
  0x65, 0x6e, 0x74, 0x69, 0x61, 0x6c, 0x5f, 0x37, 0x2f, 0x63, 0x6f, 0x6e,
  0x76, 0x32, 0x64, 0x5f, 0x31, 0x34, 0x2f, 0x52, 0x65, 0x6c, 0x75, 0x3b,
  0x73, 0x65, 0x71, 0x75, 0x65, 0x6e, 0x74, 0x69, 0x61, 0x6c, 0x5f, 0x37,
  0x2f, 0x63, 0x6f, 0x6e, 0x76, 0x32, 0x64, 0x5f, 0x31, 0x34, 0x2f, 0x42,
  0x69, 0x61, 0x73, 0x41, 0x64, 0x64, 0x3b, 0x73, 0x65, 0x71, 0x75, 0x65,
  0x6e, 0x74, 0x69, 0x61, 0x6c, 0x5f, 0x37, 0x2f, 0x63, 0x6f, 0x6e, 0x76,
  0x32, 0x64, 0x5f, 0x31, 0x34, 0x2f, 0x43, 0x6f, 0x6e, 0x76, 0x32, 0x44,
  0x3b, 0x73, 0x65, 0x71, 0x75, 0x65, 0x6e, 0x74, 0x69, 0x61, 0x6c, 0x5f,
  0x37, 0x2f, 0x63, 0x6f, 0x6e, 0x76, 0x32, 0x64, 0x5f, 0x31, 0x34, 0x2f,
  0x42, 0x69, 0x61, 0x73, 0x41, 0x64, 0x64, 0x2f, 0x52, 0x65, 0x61, 0x64,
  0x56, 0x61, 0x72, 0x69, 0x61, 0x62, 0x6c, 0x65, 0x4f, 0x70, 0x00, 0x00,
  0x04, 0x00, 0x00, 0x00, 0x01, 0x00, 0x00, 0x00, 0x18, 0x00, 0x00, 0x00,
  0x20, 0x00, 0x00, 0x00, 0x10, 0x00, 0x00, 0x00, 0x3a, 0xfa, 0xff, 0xff,
  0x00, 0x00, 0x00, 0x01, 0x14, 0x00, 0x00, 0x00, 0xe4, 0x00, 0x00, 0x00,
  0x0a, 0x00, 0x00, 0x00, 0x00, 0x00, 0x00, 0x09, 0xfc, 0x00, 0x00, 0x00,
  0xa4, 0xf9, 0xff, 0xff, 0x08, 0x00, 0x00, 0x00, 0x88, 0x00, 0x00, 0x00,
  0x10, 0x00, 0x00, 0x00, 0x00, 0x00, 0x00, 0x00, 0x00, 0x00, 0x00, 0x00,
  0x00, 0x00, 0x00, 0x00, 0x00, 0x00, 0x00, 0x00, 0x00, 0x00, 0x00, 0x00,
  0x00, 0x00, 0x00, 0x00, 0x00, 0x00, 0x00, 0x00, 0x00, 0x00, 0x00, 0x00,
  0x00, 0x00, 0x00, 0x00, 0x00, 0x00, 0x00, 0x00, 0x00, 0x00, 0x00, 0x00,
  0x00, 0x00, 0x00, 0x00, 0x00, 0x00, 0x00, 0x00, 0x00, 0x00, 0x00, 0x00,
  0x00, 0x00, 0x00, 0x00, 0x00, 0x00, 0x00, 0x00, 0x00, 0x00, 0x00, 0x00,
  0x00, 0x00, 0x00, 0x00, 0x00, 0x00, 0x00, 0x00, 0x00, 0x00, 0x00, 0x00,
  0x00, 0x00, 0x00, 0x00, 0x00, 0x00, 0x00, 0x00, 0x00, 0x00, 0x00, 0x00,
  0x00, 0x00, 0x00, 0x00, 0x00, 0x00, 0x00, 0x00, 0x00, 0x00, 0x00, 0x00,
  0x00, 0x00, 0x00, 0x00, 0x00, 0x00, 0x00, 0x00, 0x00, 0x00, 0x00, 0x00,
  0x00, 0x00, 0x00, 0x00, 0x00, 0x00, 0x00, 0x00, 0x00, 0x00, 0x00, 0x00,
  0x10, 0x00, 0x00, 0x00, 0x4f, 0x94, 0xb7, 0x3a, 0x9c, 0x02, 0xce, 0x3a,
  0x58, 0x53, 0xb1, 0x3a, 0x32, 0xa5, 0xb1, 0x3a, 0x44, 0x1e, 0xba, 0x3a,
  0x41, 0xac, 0xc9, 0x3a, 0xfd, 0x8d, 0xc5, 0x3a, 0xfe, 0xa9, 0xcc, 0x3a,
  0xe5, 0xbf, 0xb4, 0x3a, 0x8c, 0x00, 0xce, 0x3a, 0x6d, 0x37, 0xc0, 0x3a,
  0xad, 0x72, 0xbf, 0x3a, 0x7e, 0xde, 0x76, 0x3a, 0x97, 0x9c, 0xaf, 0x3a,
  0xa1, 0xbf, 0xd0, 0x3a, 0xd8, 0x33, 0xc4, 0x3a, 0x1d, 0x00, 0x00, 0x00,
  0x73, 0x65, 0x71, 0x75, 0x65, 0x6e, 0x74, 0x69, 0x61, 0x6c, 0x5f, 0x37,
  0x2f, 0x63, 0x6f, 0x6e, 0x76, 0x32, 0x64, 0x5f, 0x31, 0x34, 0x2f, 0x43,
  0x6f, 0x6e, 0x76, 0x32, 0x44, 0x00, 0x00, 0x00, 0x04, 0x00, 0x00, 0x00,
  0x10, 0x00, 0x00, 0x00, 0x03, 0x00, 0x00, 0x00, 0x03, 0x00, 0x00, 0x00,
  0x01, 0x00, 0x00, 0x00, 0x62, 0xfb, 0xff, 0xff, 0x00, 0x00, 0x00, 0x01,
  0x14, 0x00, 0x00, 0x00, 0xe8, 0x00, 0x00, 0x00, 0x09, 0x00, 0x00, 0x00,
  0x00, 0x00, 0x00, 0x02, 0x10, 0x01, 0x00, 0x00, 0xcc, 0xfa, 0xff, 0xff,
  0x08, 0x00, 0x00, 0x00, 0x8c, 0x00, 0x00, 0x00, 0x10, 0x00, 0x00, 0x00,
  0x00, 0x00, 0x00, 0x00, 0x00, 0x00, 0x00, 0x00, 0x00, 0x00, 0x00, 0x00,
  0x00, 0x00, 0x00, 0x00, 0x00, 0x00, 0x00, 0x00, 0x00, 0x00, 0x00, 0x00,
  0x00, 0x00, 0x00, 0x00, 0x00, 0x00, 0x00, 0x00, 0x00, 0x00, 0x00, 0x00,
  0x00, 0x00, 0x00, 0x00, 0x00, 0x00, 0x00, 0x00, 0x00, 0x00, 0x00, 0x00,
  0x00, 0x00, 0x00, 0x00, 0x00, 0x00, 0x00, 0x00, 0x00, 0x00, 0x00, 0x00,
  0x00, 0x00, 0x00, 0x00, 0x00, 0x00, 0x00, 0x00, 0x00, 0x00, 0x00, 0x00,
  0x00, 0x00, 0x00, 0x00, 0x00, 0x00, 0x00, 0x00, 0x00, 0x00, 0x00, 0x00,
  0x00, 0x00, 0x00, 0x00, 0x00, 0x00, 0x00, 0x00, 0x00, 0x00, 0x00, 0x00,
  0x00, 0x00, 0x00, 0x00, 0x00, 0x00, 0x00, 0x00, 0x00, 0x00, 0x00, 0x00,
  0x00, 0x00, 0x00, 0x00, 0x00, 0x00, 0x00, 0x00, 0x00, 0x00, 0x00, 0x00,
  0x00, 0x00, 0x00, 0x00, 0x00, 0x00, 0x00, 0x00, 0x00, 0x00, 0x00, 0x00,
  0x10, 0x00, 0x00, 0x00, 0x02, 0xdc, 0xb6, 0x3a, 0xcb, 0x33, 0xcd, 0x3a,
  0x53, 0xa1, 0xb0, 0x3a, 0xda, 0xf2, 0xb0, 0x3a, 0x6b, 0x63, 0xb9, 0x3a,
  0xca, 0xe1, 0xc8, 0x3a, 0xa9, 0xc7, 0xc4, 0x3a, 0x87, 0xdc, 0xcb, 0x3a,
  0x70, 0x0a, 0xb4, 0x3a, 0xbd, 0x31, 0xcd, 0x3a, 0x75, 0x76, 0xbf, 0x3a,
  0x7a, 0xb2, 0xbe, 0x3a, 0xa8, 0xe6, 0x75, 0x3a, 0x4a, 0xec, 0xae, 0x3a,
  0x10, 0xee, 0xcf, 0x3a, 0xdf, 0x6e, 0xc3, 0x3a, 0x2d, 0x00, 0x00, 0x00,
  0x73, 0x65, 0x71, 0x75, 0x65, 0x6e, 0x74, 0x69, 0x61, 0x6c, 0x5f, 0x37,
  0x2f, 0x63, 0x6f, 0x6e, 0x76, 0x32, 0x64, 0x5f, 0x31, 0x34, 0x2f, 0x42,
  0x69, 0x61, 0x73, 0x41, 0x64, 0x64, 0x2f, 0x52, 0x65, 0x61, 0x64, 0x56,
  0x61, 0x72, 0x69, 0x61, 0x62, 0x6c, 0x65, 0x4f, 0x70, 0x00, 0x00, 0x00,
  0x01, 0x00, 0x00, 0x00, 0x10, 0x00, 0x00, 0x00, 0x92, 0xfc, 0xff, 0xff,
  0x00, 0x00, 0x00, 0x01, 0x14, 0x00, 0x00, 0x00, 0x84, 0x00, 0x00, 0x00,
  0x08, 0x00, 0x00, 0x00, 0x00, 0x00, 0x00, 0x09, 0x9c, 0x00, 0x00, 0x00,
  0xfc, 0xfb, 0xff, 0xff, 0x08, 0x00, 0x00, 0x00, 0x48, 0x00, 0x00, 0x00,
  0x08, 0x00, 0x00, 0x00, 0x00, 0x00, 0x00, 0x00, 0x00, 0x00, 0x00, 0x00,
  0x00, 0x00, 0x00, 0x00, 0x00, 0x00, 0x00, 0x00, 0x00, 0x00, 0x00, 0x00,
  0x00, 0x00, 0x00, 0x00, 0x00, 0x00, 0x00, 0x00, 0x00, 0x00, 0x00, 0x00,
  0x00, 0x00, 0x00, 0x00, 0x00, 0x00, 0x00, 0x00, 0x00, 0x00, 0x00, 0x00,
  0x00, 0x00, 0x00, 0x00, 0x00, 0x00, 0x00, 0x00, 0x00, 0x00, 0x00, 0x00,
  0x00, 0x00, 0x00, 0x00, 0x00, 0x00, 0x00, 0x00, 0x08, 0x00, 0x00, 0x00,
  0x09, 0xe6, 0xb4, 0x3a, 0x26, 0x5c, 0xaf, 0x3a, 0x90, 0xe9, 0xb2, 0x3a,
  0xaa, 0xac, 0xaa, 0x3a, 0x93, 0xfb, 0xb0, 0x3a, 0x81, 0xd2, 0xb4, 0x3a,
  0x85, 0x2a, 0xb5, 0x3a, 0x03, 0x41, 0xb2, 0x3a, 0x1d, 0x00, 0x00, 0x00,
  0x73, 0x65, 0x71, 0x75, 0x65, 0x6e, 0x74, 0x69, 0x61, 0x6c, 0x5f, 0x37,
  0x2f, 0x63, 0x6f, 0x6e, 0x76, 0x32, 0x64, 0x5f, 0x31, 0x35, 0x2f, 0x43,
  0x6f, 0x6e, 0x76, 0x32, 0x44, 0x00, 0x00, 0x00, 0x04, 0x00, 0x00, 0x00,
  0x08, 0x00, 0x00, 0x00, 0x03, 0x00, 0x00, 0x00, 0x03, 0x00, 0x00, 0x00,
  0x10, 0x00, 0x00, 0x00, 0x5a, 0xfd, 0xff, 0xff, 0x00, 0x00, 0x00, 0x01,
  0x14, 0x00, 0x00, 0x00, 0x88, 0x00, 0x00, 0x00, 0x07, 0x00, 0x00, 0x00,
  0x00, 0x00, 0x00, 0x02, 0xb0, 0x00, 0x00, 0x00, 0xc4, 0xfc, 0xff, 0xff,
  0x08, 0x00, 0x00, 0x00, 0x4c, 0x00, 0x00, 0x00, 0x08, 0x00, 0x00, 0x00,
  0x00, 0x00, 0x00, 0x00, 0x00, 0x00, 0x00, 0x00, 0x00, 0x00, 0x00, 0x00,
  0x00, 0x00, 0x00, 0x00, 0x00, 0x00, 0x00, 0x00, 0x00, 0x00, 0x00, 0x00,
  0x00, 0x00, 0x00, 0x00, 0x00, 0x00, 0x00, 0x00, 0x00, 0x00, 0x00, 0x00,
  0x00, 0x00, 0x00, 0x00, 0x00, 0x00, 0x00, 0x00, 0x00, 0x00, 0x00, 0x00,
  0x00, 0x00, 0x00, 0x00, 0x00, 0x00, 0x00, 0x00, 0x00, 0x00, 0x00, 0x00,
  0x00, 0x00, 0x00, 0x00, 0x00, 0x00, 0x00, 0x00, 0x08, 0x00, 0x00, 0x00,
  0x92, 0xad, 0xfc, 0x39, 0x14, 0xf1, 0xf4, 0x39, 0x57, 0xe7, 0xf9, 0x39,
  0xa5, 0x65, 0xee, 0x39, 0x57, 0x35, 0xf7, 0x39, 0x4a, 0x92, 0xfc, 0x39,
  0x3b, 0x0d, 0xfd, 0x39, 0xe9, 0xfb, 0xf8, 0x39, 0x2d, 0x00, 0x00, 0x00,
  0x73, 0x65, 0x71, 0x75, 0x65, 0x6e, 0x74, 0x69, 0x61, 0x6c, 0x5f, 0x37,
  0x2f, 0x63, 0x6f, 0x6e, 0x76, 0x32, 0x64, 0x5f, 0x31, 0x35, 0x2f, 0x42,
  0x69, 0x61, 0x73, 0x41, 0x64, 0x64, 0x2f, 0x52, 0x65, 0x61, 0x64, 0x56,
  0x61, 0x72, 0x69, 0x61, 0x62, 0x6c, 0x65, 0x4f, 0x70, 0x00, 0x00, 0x00,
  0x01, 0x00, 0x00, 0x00, 0x08, 0x00, 0x00, 0x00, 0x2a, 0xfe, 0xff, 0xff,
  0x00, 0x00, 0x00, 0x01, 0x14, 0x00, 0x00, 0x00, 0x34, 0x00, 0x00, 0x00,
  0x06, 0x00, 0x00, 0x00, 0x00, 0x00, 0x00, 0x09, 0x4c, 0x00, 0x00, 0x00,
  0x94, 0xfd, 0xff, 0xff, 0x08, 0x00, 0x00, 0x00, 0x14, 0x00, 0x00, 0x00,
  0x01, 0x00, 0x00, 0x00, 0x00, 0x00, 0x00, 0x00, 0x00, 0x00, 0x00, 0x00,
  0x00, 0x00, 0x00, 0x00, 0x01, 0x00, 0x00, 0x00, 0xc8, 0x3f, 0x8f, 0x3a,
  0x1c, 0x00, 0x00, 0x00, 0x73, 0x65, 0x71, 0x75, 0x65, 0x6e, 0x74, 0x69,
  0x61, 0x6c, 0x5f, 0x37, 0x2f, 0x64, 0x65, 0x6e, 0x73, 0x65, 0x5f, 0x31,
  0x34, 0x2f, 0x4d, 0x61, 0x74, 0x4d, 0x75, 0x6c, 0x00, 0x00, 0x00, 0x00,
  0x02, 0x00, 0x00, 0x00, 0x10, 0x00, 0x00, 0x00, 0x80, 0x01, 0x00, 0x00,
  0x9a, 0xfe, 0xff, 0xff, 0x00, 0x00, 0x00, 0x01, 0x14, 0x00, 0x00, 0x00,
  0x30, 0x00, 0x00, 0x00, 0x05, 0x00, 0x00, 0x00, 0x00, 0x00, 0x00, 0x02,
  0x58, 0x00, 0x00, 0x00, 0x04, 0xfe, 0xff, 0xff, 0x08, 0x00, 0x00, 0x00,
  0x10, 0x00, 0x00, 0x00, 0x01, 0x00, 0x00, 0x00, 0x00, 0x00, 0x00, 0x00,
  0x00, 0x00, 0x00, 0x00, 0x01, 0x00, 0x00, 0x00, 0x5f, 0xac, 0x74, 0x39,
  0x2c, 0x00, 0x00, 0x00, 0x73, 0x65, 0x71, 0x75, 0x65, 0x6e, 0x74, 0x69,
  0x61, 0x6c, 0x5f, 0x37, 0x2f, 0x64, 0x65, 0x6e, 0x73, 0x65, 0x5f, 0x31,
  0x34, 0x2f, 0x42, 0x69, 0x61, 0x73, 0x41, 0x64, 0x64, 0x2f, 0x52, 0x65,
  0x61, 0x64, 0x56, 0x61, 0x72, 0x69, 0x61, 0x62, 0x6c, 0x65, 0x4f, 0x70,
  0x00, 0x00, 0x00, 0x00, 0x01, 0x00, 0x00, 0x00, 0x10, 0x00, 0x00, 0x00,
  0x12, 0xff, 0xff, 0xff, 0x00, 0x00, 0x00, 0x01, 0x14, 0x00, 0x00, 0x00,
  0x34, 0x00, 0x00, 0x00, 0x04, 0x00, 0x00, 0x00, 0x00, 0x00, 0x00, 0x09,
  0x4c, 0x00, 0x00, 0x00, 0x7c, 0xfe, 0xff, 0xff, 0x08, 0x00, 0x00, 0x00,
  0x14, 0x00, 0x00, 0x00, 0x01, 0x00, 0x00, 0x00, 0x00, 0x00, 0x00, 0x00,
  0x00, 0x00, 0x00, 0x00, 0x00, 0x00, 0x00, 0x00, 0x01, 0x00, 0x00, 0x00,
  0x01, 0x87, 0x8d, 0x3b, 0x1c, 0x00, 0x00, 0x00, 0x73, 0x65, 0x71, 0x75,
  0x65, 0x6e, 0x74, 0x69, 0x61, 0x6c, 0x5f, 0x37, 0x2f, 0x64, 0x65, 0x6e,
  0x73, 0x65, 0x5f, 0x31, 0x35, 0x2f, 0x4d, 0x61, 0x74, 0x4d, 0x75, 0x6c,
  0x00, 0x00, 0x00, 0x00, 0x02, 0x00, 0x00, 0x00, 0x03, 0x00, 0x00, 0x00,
  0x10, 0x00, 0x00, 0x00, 0x82, 0xff, 0xff, 0xff, 0x00, 0x00, 0x00, 0x01,
  0x14, 0x00, 0x00, 0x00, 0x34, 0x00, 0x00, 0x00, 0x03, 0x00, 0x00, 0x00,
  0x00, 0x00, 0x00, 0x02, 0x5c, 0x00, 0x00, 0x00, 0xec, 0xfe, 0xff, 0xff,
  0x08, 0x00, 0x00, 0x00, 0x14, 0x00, 0x00, 0x00, 0x01, 0x00, 0x00, 0x00,
  0x00, 0x00, 0x00, 0x00, 0x00, 0x00, 0x00, 0x00, 0x00, 0x00, 0x00, 0x00,
  0x01, 0x00, 0x00, 0x00, 0x62, 0xdf, 0x4e, 0x3a, 0x2c, 0x00, 0x00, 0x00,
  0x73, 0x65, 0x71, 0x75, 0x65, 0x6e, 0x74, 0x69, 0x61, 0x6c, 0x5f, 0x37,
  0x2f, 0x64, 0x65, 0x6e, 0x73, 0x65, 0x5f, 0x31, 0x35, 0x2f, 0x42, 0x69,
  0x61, 0x73, 0x41, 0x64, 0x64, 0x2f, 0x52, 0x65, 0x61, 0x64, 0x56, 0x61,
  0x72, 0x69, 0x61, 0x62, 0x6c, 0x65, 0x4f, 0x70, 0x00, 0x00, 0x00, 0x00,
  0x01, 0x00, 0x00, 0x00, 0x03, 0x00, 0x00, 0x00, 0x00, 0x00, 0x16, 0x00,
  0x1c, 0x00, 0x18, 0x00, 0x17, 0x00, 0x10, 0x00, 0x0c, 0x00, 0x08, 0x00,
  0x00, 0x00, 0x00, 0x00, 0x00, 0x00, 0x07, 0x00, 0x16, 0x00, 0x00, 0x00,
  0x00, 0x00, 0x00, 0x01, 0x18, 0x00, 0x00, 0x00, 0x18, 0x00, 0x00, 0x00,
  0x02, 0x00, 0x00, 0x00, 0x00, 0x00, 0x00, 0x02, 0x30, 0x00, 0x00, 0x00,
  0x04, 0x00, 0x04, 0x00, 0x04, 0x00, 0x00, 0x00, 0x1c, 0x00, 0x00, 0x00,
  0x73, 0x65, 0x71, 0x75, 0x65, 0x6e, 0x74, 0x69, 0x61, 0x6c, 0x5f, 0x37,
  0x2f, 0x66, 0x6c, 0x61, 0x74, 0x74, 0x65, 0x6e, 0x5f, 0x37, 0x2f, 0x43,
  0x6f, 0x6e, 0x73, 0x74, 0x00, 0x00, 0x00, 0x00, 0x01, 0x00, 0x00, 0x00,
  0x02, 0x00, 0x00, 0x00, 0x00, 0x00, 0x16, 0x00, 0x20, 0x00, 0x1c, 0x00,
  0x1b, 0x00, 0x14, 0x00, 0x10, 0x00, 0x0c, 0x00, 0x00, 0x00, 0x00, 0x00,
  0x08, 0x00, 0x07, 0x00, 0x16, 0x00, 0x00, 0x00, 0x00, 0x00, 0x00, 0x01,
  0x18, 0x00, 0x00, 0x00, 0x34, 0x00, 0x00, 0x00, 0x50, 0x00, 0x00, 0x00,
  0x01, 0x00, 0x00, 0x00, 0x00, 0x00, 0x00, 0x09, 0x6c, 0x00, 0x00, 0x00,
  0x04, 0x00, 0x00, 0x00, 0xff, 0xff, 0xff, 0xff, 0x18, 0x00, 0x00, 0x00,
  0x20, 0x00, 0x00, 0x00, 0x01, 0x00, 0x00, 0x00, 0x0c, 0x00, 0x0c, 0x00,
  0x00, 0x00, 0x00, 0x00, 0x08, 0x00, 0x04, 0x00, 0x0c, 0x00, 0x00, 0x00,
  0x08, 0x00, 0x00, 0x00, 0x10, 0x00, 0x00, 0x00, 0x01, 0x00, 0x00, 0x00,
  0xff, 0xff, 0xff, 0xff, 0xff, 0xff, 0xff, 0xff, 0x01, 0x00, 0x00, 0x00,
  0xff, 0xfe, 0x7e, 0x3f, 0x21, 0x00, 0x00, 0x00, 0x73, 0x65, 0x72, 0x76,
  0x69, 0x6e, 0x67, 0x5f, 0x64, 0x65, 0x66, 0x61, 0x75, 0x6c, 0x74, 0x5f,
  0x63, 0x6f, 0x6e, 0x76, 0x32, 0x64, 0x5f, 0x31, 0x34, 0x5f, 0x69, 0x6e,
  0x70, 0x75, 0x74, 0x3a, 0x30, 0x00, 0x00, 0x00, 0x04, 0x00, 0x00, 0x00,
  0x01, 0x00, 0x00, 0x00, 0x18, 0x00, 0x00, 0x00, 0x20, 0x00, 0x00, 0x00,
  0x01, 0x00, 0x00, 0x00, 0x05, 0x00, 0x00, 0x00, 0x68, 0x00, 0x00, 0x00,
  0x48, 0x00, 0x00, 0x00, 0x38, 0x00, 0x00, 0x00, 0x18, 0x00, 0x00, 0x00,
  0x04, 0x00, 0x00, 0x00, 0xb8, 0xff, 0xff, 0xff, 0x19, 0x00, 0x00, 0x00,
  0x02, 0x00, 0x00, 0x00, 0x00, 0x00, 0x00, 0x19, 0xc8, 0xff, 0xff, 0xff,
  0x09, 0x00, 0x00, 0x00, 0x04, 0x00, 0x00, 0x00, 0x00, 0x00, 0x00, 0x09,
  0x0c, 0x00, 0x0c, 0x00, 0x0b, 0x00, 0x00, 0x00, 0x00, 0x00, 0x04, 0x00,
  0x0c, 0x00, 0x00, 0x00, 0x16, 0x00, 0x00, 0x00, 0x00, 0x00, 0x00, 0x16,
  0xf0, 0xff, 0xff, 0xff, 0x11, 0x00, 0x00, 0x00, 0x02, 0x00, 0x00, 0x00,
  0x00, 0x00, 0x00, 0x11, 0x0c, 0x00, 0x10, 0x00, 0x0f, 0x00, 0x00, 0x00,
  0x08, 0x00, 0x04, 0x00, 0x0c, 0x00, 0x00, 0x00, 0x03, 0x00, 0x00, 0x00,
  0x03, 0x00, 0x00, 0x00, 0x00, 0x00, 0x00, 0x03
};
const int model_TFLite_len = 12296;
